<unk>	0
<s>	0
</s>	0
<stanza>	0
<line>	0
▁	-1.54247
,	-2.72027
.	-3.8063
▁w	-4.06629
▁i	-4.42766
▁się	-4.50987
▁—	-4.60063
a	-4.65657
▁na	-4.72358
▁z	-4.73931
▁nie	-4.86835
!	-5.0524
▁jak	-5.26962
y	-5.32251
e	-5.36826
m	-5.40871
ą	-5.41788
▁I	-5.4553
▁do	-5.47719
...	-5.57988
▁to	-5.68926
:	-5.74319
▁po	-5.79704
?	-5.8104
ch	-5.8157
i	-5.85793
▁co	-5.91097
▁za	-5.91482
▁W	-5.94348
o	-5.97898
▁A	-5.998
u	-6.02902
ę	-6.08064
em	-6.1184
▁jest	-6.16115
▁że	-6.17385
▁mnie	-6.17796
▁o	-6.1841
;	-6.19947
j	-6.25004
ć	-6.2693
▁od	-6.35854
▁tak	-6.396
▁już	-6.42346
▁mi	-6.52301
ów	-6.53083
▁Nie	-6.54953
▁Na	-6.6287
▁Z	-6.65017
sz	-6.66839
▁pod	-6.67534
ie	-6.68936
ach	-6.69471
ych	-6.77488
▁O	-6.79355
▁ma	-6.80247
▁przez	-6.80988
ej	-6.83116
▁gdy	-6.8603
▁tylko	-6.88372
▁nad	-6.88928
mi	-6.90839
my	-6.93679
▁Jak	-6.95346
▁ja	-6.9617
▁jeszcze	-6.98686
▁bez	-6.989
go	-7.02791
▁nas	-7.03959
s	-7.05262
ł	-7.05715
▁ten	-7.06571
▁dla	-7.077
▁jej	-7.09126
nie	-7.10239
▁przy	-7.11183
▁czy	-7.12177
-	-7.14752
▁ze	-7.15828
▁gdzie	-7.17861
▁sobie	-7.18926
ami	-7.19509
▁tu	-7.21403
ek	-7.23094
▁tam	-7.23164
▁To	-7.23279
ego	-7.23632
▁ty	-7.2378
▁tym	-7.24166
▁(	-7.24965
▁ci	-7.25
▁«	-7.25912
▁ich	-7.27963
▁„	-7.28389
▁Co	-7.29308
▁bo	-7.29375
cie	-7.30377
▁Po	-7.34918
▁są	-7.34976
▁oczy	-7.3528
▁przed	-7.35364
▁wszystko	-7.35872
▁cię	-7.36385
ki	-7.38209
▁te	-7.38442
▁nam	-7.38849
▁kiedy	-7.3968
li	-7.41482
ś	-7.45455
▁by	-7.46124
▁Że	-7.48173
▁będzie	-7.49869
▁mu	-7.49969
▁ziemi	-7.50135
▁mój	-7.50385
▁wy	-7.51206
▁było	-7.51642
▁tej	-7.52089
▁może	-7.52462
▁nic	-7.5248
▁go	-7.53955
▁ale	-7.55485
▁Za	-7.57193
▁Bo	-7.57968
na	-7.59094
▁świat	-7.59164
▁tych	-7.6007
▁nim	-7.60449
▁moje	-7.61064
▁Lecz	-7.61605
▁Gdy	-7.6183
▁który	-7.624
)	-7.62512
▁siebie	-7.63503
om	-7.64334
ym	-7.65855
▁które	-7.66679
▁serce	-7.6869
ce	-7.69209
▁Czy	-7.69319
▁we	-7.70465
▁ciebie	-7.70567
▁Bóg	-7.70916
▁tego	-7.72225
ka	-7.73241
▁jego	-7.73288
▁u	-7.74152
c	-7.77448
▁teraz	-7.77875
▁choć	-7.78964
▁je	-7.79059
ły	-7.79129
▁lecz	-7.79621
▁Ale	-7.79951
▁Do	-7.80402
▁ta	-7.82376
▁S	-7.84113
▁był	-7.84662
ż	-7.86895
▁coś	-7.87727
▁noc	-7.89106
▁świata	-7.89228
▁czas	-7.89323
▁aż	-7.90548
▁Niech	-7.90757
▁Tak	-7.91155
!...	-7.92793
▁on	-7.9309
▁więc	-7.93482
▁dzień	-7.93502
▁być	-7.93632
▁mną	-7.94968
ją	-7.95487
▁prze	-7.95535
▁Już	-7.957
▁mam	-7.96099
ne	-7.96236
▁życie	-7.97345
by	-7.98227
▁ją	-7.98359
▁zawsze	-7.98601
▁jestem	-7.98702
▁ku	-7.99871
▁Gdzie	-8.00026
▁raz	-8.00089
▁wiem	-8.01686
ła	-8.02061
▁nocy	-8.02862
że	-8.02907
▁kto	-8.0325
▁Miłość	-8.03304
▁jako	-8.04223
▁niech	-8.05226
▁domu	-8.05472
▁moja	-8.05499
▁znów	-8.05987
▁nich	-8.06056
▁nieba	-8.07393
▁też	-8.075
”	-8.08467
▁Od	-8.08528
▁P	-8.09422
▁Ja	-8.09437
śród	-8.10065
▁nawet	-8.10083
▁lub	-8.10582
▁serca	-8.10906
▁Śmierć	-8.11914
▁swe	-8.12173
▁nasze	-8.13177
▁wśród	-8.13348
▁niej	-8.13483
▁tę	-8.14164
▁Więc	-8.14251
▁dziś	-8.1461
▁niebo	-8.14642
▁potem	-8.15196
▁sam	-8.15346
▁dzieci	-8.15385
▁których	-8.16497
▁śmierć	-8.1653
▁słowa	-8.1817
▁wszystkie	-8.18728
▁sen	-8.18765
▁usta	-8.18966
▁nigdy	-8.19048
▁ciała	-8.19508
▁trzeba	-8.19903
▁która	-8.20644
▁śmierci	-8.21017
▁me	-8.2108
ku	-8.21195
▁ręce	-8.21979
łem	-8.22095
▁życia	-8.22118
ość	-8.22133
▁żeby	-8.22567
▁słońca	-8.23227
/	-8.23323
▁ciało	-8.23763
k	-8.24948
▁Ty	-8.25298
▁albo	-8.25359
▁tobie	-8.25379
I	-8.25435
▁s	-8.2553
((((((((((((((((	-8.25803
▁myśli	-8.26331
▁jakby	-8.2663
▁słońce	-8.28383
▁była	-8.28906
▁Aż	-8.29057
▁wiatr	-8.30388
▁ani	-8.31307
▁nikt	-8.31324
nych	-8.32206
▁której	-8.32535
▁dwa	-8.32554
ną	-8.33331
▁cały	-8.33477
▁lat	-8.33955
▁bardzo	-8.34067
A	-8.34119
▁By	-8.34591
▁twoje	-8.34892
jąc	-8.35081
▁roz	-8.35452
z	-8.36106
▁U	-8.36705
▁sobą	-8.37496
▁miłości	-8.37548
▁którym	-8.37624
▁Kiedy	-8.37931
ze	-8.37937
▁twój	-8.38493
ny	-8.38502
▁Kto	-8.38978
!»	-8.39408
▁duszy	-8.39536
▁będę	-8.39549
▁piersi	-8.39798
▁im	-8.39869
▁wtedy	-8.4017
▁Pod	-8.40706
'	-8.40762
▁więcej	-8.40788
▁niż	-8.41029
▁głos	-8.41091
▁swoje	-8.41654
ło	-8.4166
................	-8.41824
▁was	-8.4187
▁wciąż	-8.45091
▁można	-8.45122
▁gdzieś	-8.45979
▁miał	-8.46679
▁coraz	-8.47434
▁the	-8.47459
▁dalej	-8.47716
▁swój	-8.47951
nia	-8.482
▁Nad	-8.48425
▁będą	-8.49729
▁nagle	-8.50223
▁rzeczy	-8.50231
▁pieśni	-8.50281
liśmy	-8.50339
▁pan	-8.50688
▁łzy	-8.50748
▁oczu	-8.50765
▁drzewa	-8.51305
▁miłość	-8.51566
▁nią	-8.51717
▁dom	-8.51732
▁kwiaty	-8.52827
▁ziemia	-8.53292
▁twe	-8.53292
▁razem	-8.53414
▁ziemię	-8.53676
▁każdy	-8.53862
▁mię	-8.53958
am	-8.53986
▁którą	-8.54205
▁gwiazd	-8.54253
▁niebie	-8.54888
▁jeśli	-8.55086
▁Boże	-8.55098
▁gwiazdy	-8.55274
▁tobą	-8.55392
▁Wy	-8.55508
▁Noc	-8.5561
▁dni	-8.55689
▁Tam	-8.56288
▁twarz	-8.56403
»	-8.56454
▁ludzi	-8.56514
w	-8.56798
ko	-8.57027
”.	-8.57104
▁mojej	-8.57151
▁właśnie	-8.57279
▁jeden	-8.57324
▁światło	-8.57469
▁swej	-8.58074
▁między	-8.59018
▁znowu	-8.59271
▁wody	-8.59274
▁K	-8.593
śmy	-8.6009
▁jesteś	-8.60314
▁naszych	-8.60404
▁Kon	-8.61122
▁ni	-8.61905
▁ludzie	-8.62344
▁ktoś	-8.62395
bym	-8.62952
▁sercu	-8.62968
▁krew	-8.62978
▁drogi	-8.63006
dycja	-8.63363
▁oczach	-8.63412
wszy	-8.6381
le	-8.64299
O	-8.64895
▁M	-8.64975
iem	-8.65274
▁samo	-8.65694
▁góry	-8.66288
?...	-8.66404
▁jednak	-8.66659
▁Tu	-8.66687
▁morze	-8.66701
▁myśl	-8.66714
▁snu	-8.66823
▁p	-8.67012
▁krwi	-8.67158
▁Ten	-8.67499
▁gdyby	-8.67527
▁tyle	-8.67739
▁Choć	-8.68041
▁da	-8.68044
▁niby	-8.68057
▁cień	-8.68338
▁słów	-8.68625
uje	-8.6887
▁wszystkich	-8.69449
▁płynie	-8.69521
▁światła	-8.69586
▁taki	-8.69758
ci	-8.70252
t	-8.70527
▁nami	-8.70777
▁złote	-8.71571
▁czasem	-8.71688
▁mówi	-8.718
▁Sen	-8.71894
ieś	-8.72124
▁swą	-8.72146
▁świecie	-8.72612
no	-8.72706
▁mych	-8.72786
one	-8.73395
▁Przez	-8.7342
▁ludzka	-8.7343
▁Oj	-8.73461
▁chwilę	-8.73697
▁Pan	-8.73709
▁białe	-8.74126
▁chce	-8.74148
».	-8.74161
▁moich	-8.74345
▁musi	-8.74687
▁ust	-8.74855
▁Boga	-8.7502
▁morza	-8.75291
▁masz	-8.75299
▁Tylko	-8.75732
▁Jeszcze	-8.75973
▁Jest	-8.76101
to	-8.76266
▁głowy	-8.76575
ta	-8.76603
▁kiedyś	-8.76764
▁dobrze	-8.77192
▁drzew	-8.77212
▁moją	-8.77301
▁drzwi	-8.77822
ości	-8.77948
▁mej	-8.77951
▁kwiat	-8.78567
W	-8.78698
▁Przy	-8.79018
▁moim	-8.79358
▁tutaj	-8.79541
▁nasz	-8.79698
▁dłoni	-8.79848
Nie	-8.80264
▁cicho	-8.80389
ni	-8.80427
▁chmur	-8.80543
▁takie	-8.80599
▁stoi	-8.80779
▁duch	-8.81005
eś	-8.81475
▁twarzy	-8.81687
▁deszcz	-8.81709
▁trzy	-8.8179
▁ciszy	-8.81803
▁głowę	-8.81842
▁my	-8.82867
▁dzisiaj	-8.83266
▁końcu	-8.83391
▁ona	-8.84231
▁Wszystko	-8.84271
▁sama	-8.84323
▁Ach	-8.84393
▁człowiek	-8.84436
▁kości	-8.84945
▁Oto	-8.8498
▁długo	-8.85304
▁wielki	-8.85667
▁księżyc	-8.85678
łam	-8.86311
▁widzę	-8.86601
ń	-8.86618
▁Kobieta	-8.86634
▁idzie	-8.87403
owe	-8.87856
▁dłoń	-8.88117
▁Prze	-8.88439
ąc	-8.8858
d	-8.88592
▁czarne	-8.88768
▁patrzy	-8.89316
ty	-8.89661
▁wielkie	-8.89874
▁oto	-8.90228
▁czym	-8.90422
▁wam	-8.90577
▁pieśń	-8.90583
▁rąk	-8.90584
▁D	-8.90601
—	-8.90731
▁nocą	-8.90977
kiem	-8.91046
▁łez	-8.91184
mu	-8.91216
▁imię	-8.91456
▁którego	-8.91694
▁dnia	-8.91703
▁dal	-8.93188
as	-8.93295
▁pół	-8.93592
twych	-8.93851
▁Może	-8.94421
▁Panie	-8.94546
ką	-8.94658
▁końca	-8.94897
n	-8.94917
▁aby	-8.95128
▁Nic	-8.95737
▁biały	-8.95766
▁Ani	-8.95783
▁śnie	-8.95854
▁ciągle	-8.95976
▁mogę	-8.96004
▁dnie	-8.96083
▁Ciało	-8.96131
▁Wiatr	-8.96135
▁blask	-8.96223
▁wieczór	-8.96355
▁cóż	-8.96433
▁ponad	-8.96487
us	-8.96545
▁swych	-8.96677
aś	-8.97037
▁and	-8.97073
▁miasto	-8.97496
▁B	-8.97534
cy	-8.9773
▁przecież	-8.97741
▁ducha	-8.97951
▁dłonie	-8.98125
je	-8.98242
▁leży	-8.98371
▁niego	-8.98433
▁wszyscy	-8.98482
▁Dla	-8.98897
▁dusza	-8.99253
▁swym	-8.99441
owi	-8.99462
▁duszę	-8.9948
▁liście	-8.99836
▁Ni	-9.0013
ście	-9.0015
▁chociaż	-9.00289
▁chwili	-9.00368
▁pełne	-9.00572
owych	-9.00628
▁pierś	-9.01256
▁stóp	-9.01259
▁woda	-9.01309
▁ramiona	-9.01423
▁oj	-9.01623
▁mieć	-9.0165
▁miasta	-9.01904
▁twoich	-9.02227
▁czeka	-9.02622
▁dwie	-9.02653
▁wzrok	-9.02896
▁czasu	-9.02939
▁T	-9.03199
▁jedno	-9.03342
▁mają	-9.0339
▁słowo	-9.03819
▁ból	-9.03958
▁Poeta	-9.03981
>	-9.04085
▁chyba	-9.04094
▁bardziej	-9.04117
▁wiele	-9.04282
▁kwiatów	-9.04304
kę	-9.04311
ony	-9.04503
).	-9.05331
▁Czas	-9.05692
▁ogień	-9.05763
za	-9.05892
▁Duch	-9.05892
▁były	-9.06012
▁słońcu	-9.06088
▁Te	-9.06099
!”	-9.06102
▁śpiewa	-9.06106
▁wie	-9.06581
▁Serce	-9.07456
▁skąd	-9.07763
▁daleko	-9.0778
ków	-9.07961
▁lata	-9.07973
▁Przemijanie	-9.08
eń	-9.08276
▁włosy	-9.08405
▁Dziś	-9.087
▁droga	-9.08829
anim	-9.09383
▁płyną	-9.09439
▁jednym	-9.09451
▁pani	-9.09802
▁chmury	-9.09877
▁mego	-9.09909
▁in	-9.10005
▁widać	-9.1009
▁głową	-9.1027
▁stary	-9.10475
▁świeci	-9.11227
▁tą	-9.11309
▁Ta	-9.11512
▁C	-9.11953
▁każde	-9.12068
▁Matka	-9.12107
▁jakiś	-9.12213
▁las	-9.12351
▁gra	-9.1252
▁lesie	-9.1326
▁dół	-9.13396
▁ściany	-9.1341
▁jasne	-9.13624
▁mą	-9.13631
▁nimi	-9.13719
▁no	-9.13947
▁będziesz	-9.14039
▁ptak	-9.14149
ų	-9.14202
enia	-9.14272
▁matki	-9.1431
▁My	-9.14558
▁każdym	-9.1508
▁złoty	-9.15294
▁chcę	-9.15361
▁powietrze	-9.15362
▁sny	-9.15462
▁żal	-9.15508
szy	-9.15786
éj	-9.1581
▁drogę	-9.15812
▁snem	-9.16108
▁moc	-9.16321
▁Jako	-9.16572
▁nogi	-9.16857
▁spod	-9.16922
▁dźwięk	-9.17015
▁kształt	-9.17302
▁nowe	-9.17396
▁wiesz	-9.17538
▁wokół	-9.17923
▁Potem	-9.18052
▁Natura	-9.18416
▁stanie	-9.18826
▁mrok	-9.18834
▁mamy	-9.191
▁Roz	-9.19125
▁śnieg	-9.19129
▁śpiew	-9.19305
▁ustach	-9.1937
▁drodze	-9.19776
▁ciemność	-9.19959
r	-9.20664
▁całą	-9.20916
▁obok	-9.20953
▁drugi	-9.2109
▁Słońce	-9.21206
ać	-9.21312
▁Teraz	-9.21478
▁głębi	-9.21614
ona	-9.21976
▁snów	-9.22071
▁of	-9.22357
▁blasku	-9.22363
es	-9.22397
▁dość	-9.22454
▁Albo	-9.22556
▁wszędzie	-9.23048
▁oko	-9.23083
▁dziecko	-9.23222
▁On	-9.2339
en	-9.23515
▁twojej	-9.23666
is	-9.23726
▁krwią	-9.24008
▁ślad	-9.24208
▁swoją	-9.24402
▁fala	-9.24514
▁czego	-9.24584
▁górę	-9.24632
▁swoim	-9.24648
▁gór	-9.24995
▁Nikt	-9.25218
▁złota	-9.25414
▁trochę	-9.25597
▁wieki	-9.25613
▁cała	-9.25614
▁wód	-9.25703
▁Miasto	-9.26123
▁pierwszy	-9.2614
▁także	-9.26162
enie	-9.2636
▁naszej	-9.26417
▁No	-9.26446
▁dawno	-9.26596
▁pole	-9.26756
▁ob	-9.2688
▁ile	-9.26943
▁bym	-9.27209
▁leci	-9.2726
▁Cóż	-9.27269
▁Dusza	-9.27285
▁wraz	-9.28422
▁wreszcie	-9.28457
▁mojego	-9.28628
▁jednej	-9.28748
▁szczęścia	-9.28985
▁powietrzu	-9.29249
▁mocno	-9.29266
▁chciał	-9.2935
▁Łzy	-9.29423
owej	-9.29516
▁Coś	-9.29558
owym	-9.29649
▁pola	-9.29833
▁mało	-9.3005
▁ciemne	-9.30127
▁Anioł	-9.30184
▁Bez	-9.3037
▁idą	-9.30376
▁kamień	-9.30501
▁daleka	-9.30504
▁Żeby	-9.30576
▁mały	-9.30742
▁mroku	-9.30762
▁przyjdzie	-9.30799
▁żyć	-9.30901
▁la	-9.31437
▁mógł	-9.31554
▁Ma	-9.31577
▁Cierpienie	-9.31699
▁jedna	-9.31717
▁cisza	-9.31926
▁rano	-9.32079
▁ciemności	-9.32337
▁brzeg	-9.32347
▁Życie	-9.32371
▁jedną	-9.32618
▁uśmiech	-9.32656
▁ognia	-9.32778
▁kraj	-9.32833
▁skrzydła	-9.3286
ść	-9.32995
▁którzy	-9.33007
▁grób	-9.33048
▁grobie	-9.33052
▁stronę	-9.33136
▁strony	-9.33236
▁ulicy	-9.33248
▁Obraz	-9.33251
▁dna	-9.33368
▁chleba	-9.33407
▁sercem	-9.3344
▁brzegu	-9.33486
▁jakie	-9.33581
▁prawie	-9.33763
ca	-9.33945
▁znaczy	-9.34018
▁krzyż	-9.34027
p	-9.34201
▁dobry	-9.34335
▁okno	-9.34346
▁powoli	-9.34362
▁Mój	-9.34387
▁twarze	-9.34594
▁zbyt	-9.34622
▁całe	-9.34818
▁niebem	-9.35683
▁swoich	-9.35874
▁człowieka	-9.35887
▁twej	-9.3608
▁zaraz	-9.36125
▁czarny	-9.362
▁patrzę	-9.36322
▁chodzi	-9.36336
▁róż	-9.36345
cz	-9.36674
▁Które	-9.3691
▁Przed	-9.36974
▁rękę	-9.36994
▁pełen	-9.36997
▁głowie	-9.37
▁bije	-9.37016
▁ziemią	-9.37175
▁ręki	-9.37175
▁oni	-9.37388
▁wiersz	-9.37395
▁Ci	-9.37598
amiast	-9.37858
▁młody	-9.37965
os	-9.38159
▁pamięci	-9.38345
▁drogą	-9.38351
▁G	-9.38443
▁siły	-9.38659
▁Światło	-9.39241
▁miejsce	-9.39304
▁Będzie	-9.39325
▁rzecz	-9.39543
▁fali	-9.39664
▁polu	-9.39671
▁ptaki	-9.39864
▁jutro	-9.39934
▁wszystkim	-9.39935
▁Tęsknota	-9.39955
▁woła	-9.39996
▁swego	-9.39998
▁chwila	-9.40005
▁swojej	-9.40207
ować	-9.40282
▁mgły	-9.40298
nym	-9.40484
▁szum	-9.40561
▁innych	-9.40568
▁okna	-9.40726
▁świt	-9.40808
▁be	-9.40947
▁Poezja	-9.41033
▁koło	-9.41096
▁głąb	-9.41104
▁inaczej	-9.41168
▁wodzie	-9.41248
▁Jeśli	-9.41331
▁kilka	-9.41331
▁dzwon	-9.41372
▁język	-9.41632
▁czar	-9.41761
▁Jestem	-9.41956
▁fale	-9.42065
▁jaki	-9.42287
▁żyje	-9.42309
▁inne	-9.42367
▁iść	-9.42439
▁wodę	-9.42515
▁cicha	-9.42537
▁śniegu	-9.42811
▁Jakby	-9.42823
▁własne	-9.42869
▁niesie	-9.42942
▁obłoki	-9.43052
▁mym	-9.43578
▁krzyk	-9.43774
▁puste	-9.43831
▁pokoju	-9.43941
▁wysoko	-9.43941
▁wodą	-9.43945
▁czuję	-9.43957
▁rzeki	-9.44037
▁szczęście	-9.44115
▁ciałem	-9.44185
▁cienie	-9.44219
nej	-9.45058
▁patrząc	-9.45139
▁Woda	-9.45141
▁Niechaj	-9.45268
wie	-9.45279
▁raczej	-9.45402
▁łzami	-9.45457
▁słyszę	-9.45513
▁wicher	-9.45763
▁białych	-9.45887
▁Kwiaty	-9.45915
▁panie	-9.45924
▁Moje	-9.45993
▁Wspomnienia	-9.46556
▁płacz	-9.46773
▁dlaczego	-9.46801
▁małe	-9.46823
▁ręką	-9.46861
▁twoja	-9.46861
▁twoją	-9.46862
▁stopy	-9.46935
▁trwa	-9.47073
▁Każd	-9.47263
▁taka	-9.47361
▁dłonią	-9.47732
▁proszę	-9.47953
▁ciał	-9.47962
▁znak	-9.48004
▁Młodość	-9.4825
▁Nawet	-9.48272
▁bierze	-9.48307
▁głowa	-9.48307
▁niczym	-9.4836
▁czoło	-9.48363
▁dużo	-9.48586
▁Los	-9.48639
▁nasza	-9.49399
▁jakże	-9.494
▁Morze	-9.49493
owa	-9.49499
▁lepiej	-9.49515
▁los	-9.49694
▁R	-9.49735
▁Mam	-9.49822
▁Ze	-9.50089
▁rok	-9.50208
▁lud	-9.5027
▁oddech	-9.50293
Gdy	-9.50325
▁ruch	-9.50338
о	-9.50635
▁ir	-9.50749
▁Ona	-9.50767
▁liści	-9.50869
▁Walka	-9.50928
▁matka	-9.51085
▁Ptak	-9.51209
▁okien	-9.51244
▁wolno	-9.51391
▁powietrza	-9.51415
▁widzi	-9.51446
▁czoła	-9.51478
▁ostatni	-9.5149
▁słychać	-9.51652
)))))))))))))))	-9.51677
Z	-9.51684
▁chleb	-9.51687
▁deszczu	-9.51702
▁wiecznie	-9.51782
▁długie	-9.5202
▁sto	-9.52036
▁brak	-9.52209
przez	-9.52519
▁ramion	-9.52865
▁smutek	-9.52969
▁wieczność	-9.5297
▁Księżyc	-9.5299
▁And	-9.53026
▁płomień	-9.53093
▁niechaj	-9.5326
▁miejsca	-9.53274
▁trawy	-9.53299
er	-9.53319
▁wcale	-9.53371
▁zapach	-9.53391
▁roku	-9.53653
▁pana	-9.53664
▁Hej	-9.54098
▁czerwone	-9.54294
▁serc	-9.54328
▁znam	-9.54431
▁kończy	-9.54468
▁miły	-9.54489
▁wiosna	-9.54564
▁mgle	-9.54571
▁obłoków	-9.54657
▁kobiety	-9.54729
▁Twój	-9.54801
▁*	-9.54803
▁nóg	-9.54804
▁naprawdę	-9.54808
▁staje	-9.54858
▁czarnych	-9.54937
▁bólu	-9.54946
▁wiatru	-9.55374
▁dzwoni	-9.55565
▁płacze	-9.55715
▁Dom	-9.55928
▁wolna	-9.56171
łeś	-9.56312
▁śpi	-9.56516
▁obraz	-9.56582
▁pies	-9.56705
▁stało	-9.56743
ści	-9.57086
▁noce	-9.57122
▁Aby	-9.57124
▁piasku	-9.57815
▁ciszę	-9.57858
▁cichy	-9.58116
rócz	-9.58163
▁twoim	-9.58174
nego	-9.58253
▁Ojczyzna	-9.5852
▁Dziecko	-9.58581
▁Grób	-9.58636
ał	-9.58695
▁Niebo	-9.5888
▁rośnie	-9.58909
▁Raz	-9.59286
▁wielka	-9.59481
▁Są	-9.59483
▁Bogu	-9.59485
▁włosów	-9.59595
▁wiersze	-9.59747
▁miejscu	-9.59818
▁Modlitwa	-9.5984
▁Nim	-9.59916
▁same	-9.60071
▁żalu	-9.60104
▁życiu	-9.60176
▁pali	-9.60252
▁Strach	-9.6034
▁rosną	-9.60499
▁palce	-9.60733
▁Świat	-9.60812
▁stoją	-9.60836
▁myślę	-9.61058
▁żaden	-9.6117
▁wiary	-9.61184
▁inny	-9.61214
▁czarną	-9.6122
▁należy	-9.6125
▁kochać	-9.61276
▁pewnie	-9.61305
▁ogniem	-9.61337
▁miała	-9.61418
▁górze	-9.61475
▁fal	-9.61524
?»	-9.61617
▁Słowo	-9.61819
▁ślady	-9.61872
Na	-9.62219
▁naj	-9.6237
▁Lub	-9.6238
l	-9.62438
uję	-9.62532
▁niebios	-9.62542
▁naszą	-9.62545
▁Który	-9.6259
▁poza	-9.62637
▁mogą	-9.62717
▁Krew	-9.62788
▁mała	-9.62908
▁pracy	-9.62946
▁razy	-9.62972
kami	-9.62996
▁widział	-9.6314
▁spokój	-9.63158
▁mówię	-9.63191
▁zielone	-9.63199
▁godziny	-9.63295
▁k	-9.63569
▁ciche	-9.63791
te	-9.63852
▁stara	-9.64021
▁rana	-9.64308
▁Wojna	-9.64535
▁dzieje	-9.64655
▁krwawe	-9.64806
▁cieniu	-9.64809
zy	-9.64825
▁chcesz	-9.64962
▁oku	-9.6516
▁ogród	-9.65218
▁toczy	-9.65282
▁muszę	-9.6532
▁głosu	-9.65465
▁Ku	-9.65839
▁ciemny	-9.65855
▁Żyd	-9.66221
▁mar	-9.66292
▁robi	-9.6635
▁świateł	-9.66363
▁przestrzeń	-9.66434
▁smutne	-9.6644
▁biała	-9.66587
▁mówić	-9.66626
▁tłum	-9.66694
▁śmiech	-9.66711
▁idę	-9.66873
))))))))))))))	-9.66928
▁róże	-9.66977
▁syn	-9.67051
▁drży	-9.67163
▁Pamięć	-9.67214
▁E	-9.67252
▁Nasze	-9.6726
▁Chrystus	-9.67577
▁duchy	-9.67579
▁pól	-9.67689
▁g	-9.67704
on	-9.68188
▁Wtedy	-9.68194
▁głód	-9.68253
▁dlatego	-9.6826
▁czemu	-9.68308
▁daj	-9.68377
▁śni	-9.68499
zie	-9.68506
а	-9.68536
▁czarnej	-9.68675
▁wczoraj	-9.68793
▁szybko	-9.68865
▁Ir	-9.68886
▁Pożądanie	-9.68966
▁cieniem	-9.68969
▁stare	-9.69009
▁one	-9.6914
▁dać	-9.69148
▁for	-9.69151
▁Deszcz	-9.69487
▁złotych	-9.69534
ową	-9.69661
▁de	-9.69884
la	-9.69927
▁uderza	-9.69958
▁liść	-9.70018
▁lot	-9.70047
▁pvz	-9.70105
▁kędy	-9.70108
▁rosy	-9.70218
▁innym	-9.70359
▁koniec	-9.70397
▁rozkoszy	-9.70497
To	-9.71272
▁prosto	-9.71678
▁iš	-9.7174
ra	-9.71757
▁krąg	-9.71758
Lecz	-9.71936
▁oknem	-9.71992
▁obce	-9.71992
▁smutku	-9.72007
▁so	-9.72081
▁Jej	-9.72109
▁wielką	-9.72277
▁spraw	-9.72373
▁drzewo	-9.72473
▁okiem	-9.72601
owie	-9.72794
▁naszym	-9.7283
▁czyste	-9.7291
▁słodkie	-9.72958
▁dali	-9.73297
▁tysiąc	-9.73331
▁strach	-9.73513
▁cztery	-9.73625
▁Znów	-9.73758
▁byłem	-9.73763
▁kogo	-9.73799
▁Smutek	-9.73886
▁blisko	-9.73906
▁pamięć	-9.73914
▁sposób	-9.73915
▁wnet	-9.73916
▁twą	-9.73917
▁patrz	-9.73925
▁pewno	-9.73976
po	-9.74111
▁Moj	-9.74223
▁temu	-9.74333
▁Trup	-9.74385
▁Czemu	-9.74586
ska	-9.74607
▁daleki	-9.74695
▁głosem	-9.74762
▁ręka	-9.74778
▁stać	-9.74804
▁dym	-9.75037
▁otwiera	-9.7535
▁ho	-9.75585
▁Wzrok	-9.75785
▁ogrodzie	-9.7588
▁ha	-9.75996
▁kona	-9.76001
▁mniej	-9.76026
▁godzina	-9.76089
▁zaś	-9.7613
▁święty	-9.76151
▁piękna	-9.76166
▁przecie	-9.76193
▁Cię	-9.76218
▁rozpaczy	-9.7627
▁d	-9.76289
▁wiedzą	-9.76458
▁boli	-9.7663
ja	-9.76754
▁blaskiem	-9.76936
sta	-9.77016
▁widok	-9.77061
▁woli	-9.77071
▁Tyś	-9.77115
▁trzyma	-9.77161
kach	-9.77304
▁skał	-9.77482
і	-9.77491
▁zostanie	-9.77537
▁płonie	-9.77775
▁budzi	-9.77804
▁srebrne	-9.77839
▁list	-9.77873
▁dwóch	-9.77878
▁wiosny	-9.7788
▁zęby	-9.779
▁dwoje	-9.779
▁Oko	-9.77954
▁łonie	-9.77978
▁Był	-9.78182
▁twojego	-9.78206
▁jesteśmy	-9.78218
um	-9.78231
▁byś	-9.78335
oraz	-9.78369
▁pada	-9.78478
▁Ziemia	-9.78501
zza	-9.78628
▁zaczyna	-9.78709
▁Wszyscy	-9.78724
▁wasze	-9.7882
▁rzeka	-9.78853
▁Czasem	-9.79181
▁głosy	-9.79349
▁miłością	-9.79702
▁dopiero	-9.79916
▁niegdyś	-9.79916
▁stąd	-9.79928
▁wraca	-9.79939
▁ciemną	-9.79942
▁cud	-9.80027
▁łona	-9.80143
▁Muzyka	-9.80202
▁Ciebie	-9.80238
▁nikogo	-9.80239
▁Polska	-9.8024
▁takim	-9.80327
▁Daj	-9.80448
▁Wiosna	-9.80538
▁mgła	-9.80668
▁Tobie	-9.80741
▁dobre	-9.80875
▁piękne	-9.80901
▁nowy	-9.80914
▁taką	-9.80958
▁anioł	-9.80972
▁szuka	-9.80995
▁przychodzi	-9.81069
▁nową	-9.81094
▁tem	-9.81099
re	-9.81228
▁Marzenie	-9.8149
▁mimo	-9.81527
▁światy	-9.81576
▁broni	-9.81627
▁środku	-9.81644
▁pełnym	-9.81987
▁dziecka	-9.81999
▁całkiem	-9.82
▁kołysze	-9.82
wa	-9.82131
▁wieków	-9.82167
▁jęk	-9.82169
▁strachu	-9.82257
▁wysoki	-9.82259
▁patrzą	-9.82272
▁własnej	-9.82273
▁dzwony	-9.82743
niu	-9.82809
▁istnienia	-9.82925
▁łza	-9.83018
▁trudno	-9.83018
▁mówią	-9.8322
▁żywe	-9.8327
▁spływa	-9.83539
▁Melancholia	-9.83715
▁opada	-9.83744
▁kawał	-9.83807
▁godzin	-9.8397
▁twym	-9.84134
▁księżyca	-9.84138
▁resztki	-9.84182
▁į	-9.84283
▁stronie	-9.84307
▁byle	-9.84341
▁ptaków	-9.84423
▁Cień	-9.84429
▁cienia	-9.84457
▁Las	-9.8447
▁Cisza	-9.84491
Czy	-9.84526
▁złotą	-9.8453
▁źle	-9.84615
▁mogiły	-9.8467
▁pas	-9.84714
jcie	-9.84719
dy	-9.84761
▁daje	-9.84782
▁wielkiej	-9.84915
▁Ogień	-9.84947
▁stał	-9.84958
▁jakiej	-9.85208
czek	-9.8522
▁krok	-9.85274
▁spada	-9.85308
▁przede	-9.85367
▁proch	-9.85417
▁grom	-9.85427
▁skrzydeł	-9.8553
▁zna	-9.85585
▁prawo	-9.85623
▁albowiem	-9.85624
▁Historia	-9.85652
▁miecz	-9.85829
▁brat	-9.85912
▁król	-9.86011
▁pierwsze	-9.86014
▁Wiara	-9.86046
▁bądź	-9.86203
Jego	-9.86211
▁zielony	-9.86226
▁Wszystkie	-9.86301
▁jeżeli	-9.86314
▁szumi	-9.86329
▁czerwony	-9.86523
▁Jam	-9.86543
▁ciemno	-9.86575
▁światłem	-9.86599
▁burza	-9.86728
▁wielkim	-9.86816
«	-9.8701
▁Jakże	-9.87119
▁dziecię	-9.87135
▁Wiem	-9.87155
▁wygląda	-9.87181
▁oddali	-9.87202
▁Sam	-9.87205
▁myślą	-9.8721
▁czasie	-9.87239
owy	-9.87303
ed	-9.87721
▁choćby	-9.87735
sk	-9.87773
ują	-9.88046
▁radości	-9.88079
▁postaci	-9.88176
▁sami	-9.88234
▁piękny	-9.88262
▁jakoś	-9.8835
▁pa	-9.88365
▁Przemiana	-9.88419
▁domy	-9.88428
Jak	-9.88445
▁powiedzieć	-9.88446
▁słońcem	-9.88499
▁jam	-9.885
▁pięć	-9.88527
▁książki	-9.88531
▁ciepło	-9.88534
▁dno	-9.8856
▁białą	-9.88602
▁pomiędzy	-9.88606
▁śmiercią	-9.88654
▁powieki	-9.88852
▁chłód	-9.88861
▁uśmiechem	-9.88914
▁koła	-9.89002
▁piersiach	-9.89094
▁sprawy	-9.89099
▁święte	-9.89102
▁trawie	-9.89119
▁żywota	-9.892
▁stu	-9.89224
▁wobec	-9.89271
▁kraju	-9.89291
▁radość	-9.89494
▁mocy	-9.89549
▁pokój	-9.8955
▁prostu	-9.89597
▁bracia	-9.89759
▁żył	-9.89904
▁złe	-9.90097
▁twa	-9.90208
▁Wieczór	-9.90362
ały	-9.90429
st	-9.90472
▁zmienia	-9.90525
byś	-9.90669
▁jeziora	-9.9073
▁wiadomo	-9.90785
▁ledwo	-9.90796
▁trumny	-9.90824
▁ojca	-9.90831
▁pełna	-9.9085
▁młode	-9.90901
▁powiek	-9.90921
▁czarna	-9.90938
▁wzdłuż	-9.90939
▁wiek	-9.90952
▁chaty	-9.90985
▁zmierzchu	-9.91008
▁słucha	-9.91057
▁pamiętam	-9.91064
▁Będ	-9.91106
▁twego	-9.9111
onych	-9.91143
▁skoro	-9.91165
czy	-9.91322
gi	-9.91377
▁święta	-9.91404
▁sił	-9.91608
ymi	-9.91631
ność	-9.91679
▁pieszczot	-9.91728
▁traw	-9.91853
▁F	-9.9191
co	-9.91927
si	-9.91994
▁patrzeć	-9.92074
▁lecą	-9.92082
▁próżno	-9.92171
▁obłok	-9.92233
▁wieczny	-9.9227
wielkich	-9.92327
▁ciszą	-9.92414
▁rzuca	-9.92748
ia	-9.92785
▁szary	-9.92917
▁otchłań	-9.93121
▁piasek	-9.93122
▁nadziei	-9.93124
▁postać	-9.93174
▁własną	-9.93174
▁dobra	-9.93209
▁rozkosz	-9.93285
sze	-9.93301
▁szyby	-9.93348
▁samym	-9.93436
▁martwe	-9.93448
▁siedzi	-9.93519
▁śpiewać	-9.93598
▁zieleni	-9.936
▁języka	-9.93637
▁Zawsze	-9.94141
▁dziewczyna	-9.94184
emu	-9.94288
▁będziemy	-9.94396
▁możesz	-9.94534
▁głaz	-9.94594
▁żar	-9.94604
eni	-9.94657
▁znasz	-9.94757
▁blady	-9.9487
▁zimny	-9.94941
▁niebieski	-9.95022
▁rany	-9.95158
▁jednego	-9.95214
ten	-9.95285
▁b	-9.95371
▁róży	-9.95453
▁Dźwięk	-9.95461
▁barw	-9.95489
▁słodko	-9.95494
▁słodka	-9.95502
▁przyszłość	-9.95505
▁ciepła	-9.95506
▁niczego	-9.95508
▁drugą	-9.95519
▁Twoje	-9.95544
▁snach	-9.95545
▁l	-9.95551
▁równie	-9.95553
▁wietrze	-9.9561
▁rycerz	-9.95653
▁lekko	-9.95872
▁każda	-9.95877
▁wkoło	-9.95889
▁N	-9.95933
wy	-9.95958
▁lasu	-9.96055
▁rzeką	-9.96111
▁Dzień	-9.96142
▁oka	-9.96201
▁ciemnym	-9.96271
▁uszy	-9.96368
▁chciała	-9.96388
▁wiedzieć	-9.96446
▁bór	-9.96477
▁gwiazda	-9.96521
▁pyta	-9.96611
▁powiem	-9.96755
▁miła	-9.96801
jące	-9.96857
ly	-9.97049
▁Drzewo	-9.9713
▁rozpacz	-9.97251
▁ciepłe	-9.974
▁stała	-9.97435
▁gniew	-9.97452
▁rodzi	-9.97583
▁des	-9.97725
▁wyciąga	-9.97773
▁echa	-9.97833
▁światem	-9.97892
▁Jaki	-9.97913
ing	-9.97916
trzech	-9.97926
▁marzeń	-9.97942
▁słowem	-9.97946
▁progu	-9.97946
▁łące	-9.97949
▁mgieł	-9.97955
▁trup	-9.97955
▁grobu	-9.97963
▁oczyma	-9.97999
▁dotąd	-9.98063
▁Zima	-9.9812
▁broń	-9.98324
▁Dalej	-9.98337
▁nowych	-9.98373
▁duże	-9.98394
▁wszystkiego	-9.98418
▁The	-9.98452
▁widzisz	-9.98552
▁tuż	-9.98557
▁ostre	-9.98687
▁umarł	-9.98789
kolwiek	-9.99086
▁rytm	-9.99138
▁wiatrem	-9.99142
▁ucieka	-9.99311
Już	-9.99316
▁Kochanek	-9.99421
▁echo	-9.9946
h	-9.99503
▁zieleń	-9.9957
▁brzmi	-9.99605
▁twarzą	-9.998
▁biją	-9.99848
▁często	-9.99932
!)	-9.99975
Niech	-9.99976
▁musiał	-9.99997
▁rad	-9.99998
▁rzekł	-10.0038
▁burz	-10.0041
▁mogła	-10.0042
▁ramię	-10.0046
▁dokoła	-10.0047
▁ogniu	-10.0051
nik	-10.0051
▁dawnych	-10.0051
▁światu	-10.0053
▁nade	-10.0059
▁innego	-10.0061
▁żadnych	-10.0061
▁spokojnie	-10.0061
▁prowadzi	-10.0071
▁warg	-10.0071
▁ant	-10.0073
▁wargi	-10.0073
▁zorza	-10.0074
▁skóry	-10.0076
▁błękit	-10.0078
▁Oczy	-10.0079
▁proste	-10.008
▁Taki	-10.0091
jących	-10.0105
▁lśni	-10.0113
▁wszelki	-10.0118
▁senne	-10.0139
▁własnym	-10.0142
▁Rozpacz	-10.0156
▁zmierzch	-10.016
▁Idzie	-10.0164
▁jakim	-10.0198
▁śpiewał	-10.0214
▁przestrzeni	-10.0227
▁Och	-10.0244
▁Nasz	-10.0247
Ja	-10.0252
▁1	-10.0254
tu	-10.0268
ością	-10.0271
▁chowa	-10.0289
▁mów	-10.0295
▁ojciec	-10.0301
▁młodości	-10.0301
▁mgłą	-10.0303
▁stole	-10.0304
▁zła	-10.0306
ane	-10.0306
▁ścian	-10.0312
▁kroki	-10.0313
▁jeno	-10.0317
▁tysiące	-10.0318
▁szedł	-10.032
▁bieli	-10.0324
▁błyska	-10.0326
▁blada	-10.0329
▁bramy	-10.0339
▁dźwięki	-10.0347
▁mieście	-10.0361
▁wówczas	-10.0363
▁pisać	-10.0379
▁Ciemność	-10.0382
▁drżą	-10.0384
▁ciężkie	-10.0394
▁białym	-10.0401
▁Praca	-10.0403
▁biel	-10.0414
tem	-10.0415
▁długi	-10.0424
▁wstyd	-10.0425
▁Pani	-10.0438
▁byli	-10.0442
ga	-10.0443
▁takich	-10.0466
▁dala	-10.0475
▁pi	-10.0486
Ale	-10.0496
▁moi	-10.0496
▁został	-10.0497
▁kur	-10.0499
▁kim	-10.0503
▁jasny	-10.0503
▁zimne	-10.0507
▁podnosi	-10.0508
▁cmentarz	-10.0509
owego	-10.0512
▁leżą	-10.053
▁pachnie	-10.0544
▁Jeden	-10.0553
▁złoto	-10.0559
▁dróg	-10.0564
▁wspomnień	-10.0564
▁dusz	-10.0568
▁chwały	-10.057
▁but	-10.0571
▁ścianie	-10.0577
▁wstaje	-10.059
▁smutny	-10.0591
▁dziwne	-10.0594
▁pusta	-10.0598
▁nicość	-10.0599
▁Samotność	-10.0604
?”	-10.0614
▁falą	-10.0634
▁niosą	-10.0647
▁razie	-10.0666
▁mama	-10.0674
M	-10.0686
▁Tyle	-10.0687
▁wieczne	-10.0689
▁szukać	-10.0698
▁łąki	-10.0698
▁wiersza	-10.0705
▁różne	-10.0716
▁dar	-10.0729
▁kolana	-10.073
▁kobieta	-10.0734
ając	-10.0742
▁otchłani	-10.0742
Bo	-10.0743
е	-10.0751
▁Nigdy	-10.0754
š	-10.0755
▁podobne	-10.0783
▁lasy	-10.0798
▁burzy	-10.0802
bo	-10.0803
▁nóż	-10.0804
niem	-10.0808
▁uśmiecha	-10.0811
▁chcą	-10.083
▁popiół	-10.0834
▁morzu	-10.0834
▁dłużej	-10.0835
▁Trzeba	-10.0836
▁nagły	-10.0838
▁dam	-10.0838
▁wydaje	-10.0839
▁oknie	-10.084
▁wzrokiem	-10.084
▁łono	-10.0842
▁dziewczyny	-10.0843
▁krople	-10.0848
▁zmarłych	-10.0852
▁jasnych	-10.0864
▁praca	-10.0864
▁wpół	-10.0869
▁dokąd	-10.0869
▁Bieda	-10.0872
▁L	-10.0873
▁żeś	-10.0874
▁wprost	-10.0876
▁ruchu	-10.0877
▁jesień	-10.0877
▁wieczności	-10.0878
▁drugiej	-10.0879
▁szumem	-10.0879
▁dłoniach	-10.0881
▁3	-10.0881
▁nieraz	-10.0882
b	-10.0891
▁Kad	-10.0907
▁miesiąca	-10.0907
▁duchów	-10.0927
▁górą	-10.0939
▁ludzkie	-10.0941
tą	-10.0944
Więc	-10.0947
in	-10.0948
g	-10.0954
▁mur	-10.0965
zbyt	-10.0977
▁wesoło	-10.0992
▁man	-10.0998
▁Ojciec	-10.1024
▁kładzie	-10.1048
▁obcy	-10.1085
▁Starość	-10.1097
▁zły	-10.1097
▁nowo	-10.11
ował	-10.1101
▁celu	-10.1111
▁ciężko	-10.1112
▁dosyć	-10.1112
▁ręku	-10.1112
▁nikomu	-10.1112
▁zaczął	-10.1112
▁with	-10.1112
▁skroń	-10.1112
▁męki	-10.1113
▁świcie	-10.1114
▁wieczorem	-10.1116
▁prawda	-10.1117
▁rękami	-10.1126
▁miota	-10.1128
▁naród	-10.1133
▁brzegiem	-10.1133
▁Chociaż	-10.1138
▁chlebem	-10.1152
▁Wnet	-10.1154
da	-10.1163
▁But	-10.1168
▁boku	-10.1178
▁skały	-10.1182
▁matko	-10.1183
▁powiedz	-10.1184
est	-10.1184
▁życiem	-10.1203
▁naszego	-10.1218
▁spać	-10.122
▁ranek	-10.1227
▁mija	-10.1229
▁właściwie	-10.1234
kąd	-10.1259
▁włos	-10.1267
▁owoc	-10.1268
Tak	-10.1274
▁kot	-10.1278
▁duszą	-10.1286
▁przyszedł	-10.1298
niósł	-10.1316
▁złotem	-10.132
▁pieśnią	-10.1337
▁Me	-10.1347
...............	-10.1354
▁Wszak	-10.1372
▁tomacie	-10.1397
▁promień	-10.1398
▁that	-10.1398
▁Bogiem	-10.1398
Ty	-10.1398
▁przeszłości	-10.1399
umbr	-10.1399
▁głęboko	-10.14
▁kuchni	-10.14
▁zórz	-10.1401
▁biegu	-10.1401
((	-10.1403
▁podczas	-10.1406
▁all	-10.1406
▁rozum	-10.1409
zupełnie	-10.1409
ry	-10.1412
▁struny	-10.1416
▁Gdyby	-10.1421
▁gardła	-10.1424
▁zdaje	-10.1426
▁woń	-10.1429
▁kres	-10.1435
▁śmiechu	-10.1435
▁Kur	-10.1437
▁stoję	-10.1441
▁bóg	-10.1443
▁gałęzie	-10.1443
▁wyżej	-10.1444
▁płaczą	-10.145
?)	-10.1451
▁głuchy	-10.1453
▁mówiąc	-10.1454
▁Patrz	-10.1457
▁mieli	-10.146
▁chmurach	-10.1463
▁samego	-10.1469
▁blaski	-10.1471
▁drugim	-10.1481
у	-10.1487
▁ciemnych	-10.1489
▁sznur	-10.1527
ź	-10.1529
▁znaki	-10.1529
▁szare	-10.1531
an	-10.1536
▁Ho	-10.1572
ok	-10.1572
▁słoneczny	-10.1573
▁Coraz	-10.1593
ają	-10.1593
▁Chce	-10.1596
▁znika	-10.1605
▁wino	-10.1608
ić	-10.1611
▁pędzi	-10.1611
▁se	-10.1617
▁gada	-10.1618
nę	-10.1622
▁r	-10.1622
▁Która	-10.1627
▁ślepe	-10.1635
▁cel	-10.1647
▁der	-10.165
▁później	-10.1652
▁dawne	-10.1657
▁ginie	-10.1658
▁gałęzi	-10.1667
▁przykład	-10.1673
▁J	-10.1677
▁kamienie	-10.1687
▁kocham	-10.1688
▁łeb	-10.169
▁każdą	-10.1692
▁lustro	-10.1692
▁młodość	-10.1692
▁pójdę	-10.1696
▁echem	-10.1699
▁kogoś	-10.1701
▁południe	-10.1703
▁miastem	-10.1712
▁lew	-10.1719
▁umiera	-10.1721
▁pierwszej	-10.1722
▁wolę	-10.1722
▁pora	-10.1724
▁tańczy	-10.1736
▁drugie	-10.1737
▁gwiazdami	-10.1743
▁wędrówka	-10.1744
▁chciałbym	-10.1753
▁kocha	-10.1755
▁zrobić	-10.1767
dzie	-10.1769
Po	-10.1775
▁We	-10.1776
Co	-10.1777
▁wierszy	-10.1783
▁święto	-10.1788
ciąż	-10.1793
▁tyś	-10.1808
▁widzieć	-10.1818
▁sine	-10.1818
▁gości	-10.1825
▁zmieni	-10.1836
▁zdoła	-10.1838
▁pra	-10.1845
▁czyni	-10.1877
▁blade	-10.1898
▁Znowu	-10.1898
▁dawna	-10.191
▁zegar	-10.1912
▁Czyż	-10.1922
owo	-10.1925
▁su	-10.1926
▁porusza	-10.1932
...»	-10.1954
▁woni	-10.1959
▁słyszy	-10.1961
K	-10.1962
ledwie	-10.1966
ių	-10.1969
▁Polak	-10.1971
▁Ludzie	-10.1983
▁światów	-10.1987
▁Zaświaty	-10.199
▁świetle	-10.1995
▁wojny	-10.1995
▁dworze	-10.1995
▁słonko	-10.1995
▁kościół	-10.1995
▁przepaść	-10.1996
▁zdrowie	-10.1999
▁najbardziej	-10.2007
▁parę	-10.2008
▁otwarte	-10.2011
▁granic	-10.2021
▁nieznane	-10.2027
▁starej	-10.2032
▁żywa	-10.2033
▁którymi	-10.2044
▁straszne	-10.2045
▁Śmiech	-10.2073
▁Gwiazda	-10.2081
▁przypomina	-10.2084
▁Skąd	-10.2084
▁ode	-10.2091
▁umiem	-10.2098
▁czuł	-10.2108
▁wiedział	-10.2112
▁czarnym	-10.2116
▁Wielki	-10.2125
▁Rzeka	-10.2126
▁toń	-10.2128
▁panowie	-10.2128
▁lato	-10.2136
▁uda	-10.2138
▁wierzę	-10.2143
▁siwy	-10.2144
▁umie	-10.2163
▁całym	-10.2181
▁czasy	-10.2183
▁Idą	-10.2185
▁cichym	-10.2196
▁żywot	-10.2197
▁samotny	-10.2236
▁sieci	-10.2237
▁śpiewaj	-10.2243
▁pył	-10.2249
▁zwykle	-10.2252
▁razu	-10.2253
▁złotym	-10.2257
▁łąk	-10.2258
▁kręci	-10.2258
▁wina	-10.2284
▁żadn	-10.229
▁równa	-10.2298
▁żona	-10.2306
▁ulic	-10.2306
▁mróz	-10.2308
▁oczom	-10.2308
▁piosenkę	-10.2308
▁zwierzęta	-10.231
▁uczuć	-10.2311
▁Zaraz	-10.2311
▁niebu	-10.2312
▁czuje	-10.2312
▁Jesień	-10.2312
▁groby	-10.2314
▁waszych	-10.2318
▁Bądź	-10.2319
▁tęsknoty	-10.2321
▁własnych	-10.2326
▁żadnej	-10.2329
▁każdego	-10.2331
▁różowe	-10.2336
▁Głód	-10.2343
▁lasów	-10.2352
▁rękach	-10.2354
▁szukając	-10.2355
▁głośno	-10.2356
▁ludzkości	-10.2356
▁dawniej	-10.2358
▁braci	-10.2359
▁chwile	-10.2361
▁miękkie	-10.2367
▁Żołnierz	-10.2368
▁słup	-10.2369
▁potrzeba	-10.2369
▁zda	-10.237
▁Któ	-10.2393
▁potrafi	-10.2399
▁łatwo	-10.2408
▁czary	-10.2419
▁ujrzał	-10.2425
▁pustyni	-10.2437
▁świeże	-10.244
Kiedy	-10.245
▁wolny	-10.2452
▁Przyrod	-10.2453
▁takt	-10.2469
▁praw	-10.2471
▁składa	-10.248
nim	-10.2491
▁błękitne	-10.2497
▁wami	-10.2499
▁mając	-10.2499
at	-10.2505
▁ciężar	-10.2508
▁powie	-10.2519
▁promieni	-10.252
▁dzieli	-10.2525
we	-10.2547
▁chłodne	-10.2551
▁Dzisiaj	-10.2553
▁tonie	-10.2559
między	-10.2565
P	-10.2569
▁biegnie	-10.2569
▁szelest	-10.2582
D	-10.2585
▁dole	-10.2591
▁pytanie	-10.2593
it	-10.26
▁wyda	-10.2604
▁gry	-10.2604
▁znajdzie	-10.2611
▁siedem	-10.2621
▁mówił	-10.2626
▁wonne	-10.2626
▁bliżej	-10.263
▁początku	-10.263
▁chłopiec	-10.263
▁głodu	-10.2631
▁bowiem	-10.2631
▁trumnę	-10.2632
▁wewnątrz	-10.2633
▁smak	-10.2638
▁naprzód	-10.2647
▁czyn	-10.2649
▁pomocą	-10.2662
▁umarłych	-10.2662
▁pięknie	-10.2665
▁białego	-10.2669
▁podróży	-10.2672
▁mroków	-10.2673
▁idź	-10.2674
▁wieku	-10.2674
▁łzach	-10.2675
▁marzy	-10.2678
▁Warszawo	-10.2682
▁Ziemio	-10.2685
▁zamyka	-10.2686
▁stali	-10.2692
▁barwy	-10.2698
▁Czym	-10.27
cze	-10.2715
▁toni	-10.2722
▁widziałem	-10.2723
▁niedo	-10.274
▁konie	-10.2755
▁Powiedz	-10.276
▁bój	-10.2773
▁kształty	-10.2777
▁les	-10.2794
▁puch	-10.2802
▁rwie	-10.2815
ała	-10.2816
▁niebiosa	-10.2842
▁chór	-10.2849
▁Szczęście	-10.2856
▁łódź	-10.2858
▁dał	-10.2859
▁potok	-10.2875
cia	-10.288
▁łuk	-10.2885
▁trud	-10.2892
ter	-10.2897
▁boży	-10.2901
▁pęka	-10.2901
▁skończy	-10.2907
▁żywy	-10.2907
▁gorzkie	-10.2915
▁powiedział	-10.2927
▁Czyli	-10.2937
▁byt	-10.2937
▁wróci	-10.2938
lo	-10.2946
▁biedne	-10.2958
▁Była	-10.2961
▁smutno	-10.2963
▁trwogi	-10.2963
▁stół	-10.2963
▁jasną	-10.2963
▁jedynie	-10.2964
▁stroi	-10.2965
▁leżę	-10.2966
▁inni	-10.2969
od	-10.297
▁pot	-10.2974
▁lęku	-10.2983
▁godzinie	-10.2986
▁aniołów	-10.2987
▁nowa	-10.2988
▁sali	-10.2989
▁prawa	-10.2996
▁siłę	-10.2997
▁ciemnościach	-10.2997
▁zima	-10.2998
▁godzinę	-10.3
▁siła	-10.3002
▁dalekie	-10.3008
▁całej	-10.3011
▁ciemnej	-10.3013
▁ostry	-10.3014
▁Dzieciństwo	-10.3015
▁Dlaczego	-10.3016
▁płaczu	-10.3018
▁krzyku	-10.3019
▁H	-10.3024
▁zwierzę	-10.3032
eniu	-10.3038
▁dana	-10.3039
▁wiedząc	-10.3039
▁kij	-10.3042
▁spojrzeniem	-10.3047
▁okręt	-10.3047
ności	-10.3047
▁stron	-10.305
▁Obłok	-10.3065
▁obrazy	-10.3065
▁starych	-10.3067
▁czekam	-10.3071
jak	-10.3073
▁Tym	-10.3088
▁śpiewają	-10.3095
ak	-10.3096
▁czegoś	-10.3097
▁płoną	-10.3097
▁jedyny	-10.3107
▁Twe	-10.3111
iędzy	-10.3113
eczki	-10.3113
▁komu	-10.3115
▁wierzyć	-10.3122
▁dzikie	-10.3122
▁niespełniona	-10.3125
▁Świt	-10.3134
▁mury	-10.317
▁Ro	-10.3174
▁szmer	-10.3176
▁spokojny	-10.3176
jący	-10.319
▁gorące	-10.3202
▁per	-10.3205
lu	-10.3221
▁czyta	-10.3228
▁pójdzie	-10.3233
▁Gdzieś	-10.3247
Za	-10.3247
▁boleści	-10.3249
▁dniem	-10.3264
▁pragnienie	-10.3269
▁oblicze	-10.3271
▁will	-10.3276
▁bram	-10.3276
▁wychodzi	-10.3281
▁Mówi	-10.3283
▁Usta	-10.3283
noszę	-10.3284
▁podobny	-10.3286
ując	-10.3291
▁szept	-10.33
▁syna	-10.3302
▁bywa	-10.3303
▁traci	-10.3308
▁błękicie	-10.3308
▁strumień	-10.3308
▁ziarna	-10.3308
▁smutna	-10.3308
▁kilku	-10.3309
▁mgłę	-10.3309
▁uderzy	-10.3311
▁Takie	-10.3312
▁zostaje	-10.3312
▁Mi	-10.3313
▁wieczoru	-10.3313
▁wnętrza	-10.3314
▁gna	-10.3317
▁mowy	-10.3323
▁schodach	-10.3324
▁źrenice	-10.3325
▁rzekę	-10.3326
▁natury	-10.3329
iej	-10.333
▁tęsknota	-10.3337
▁miesiąc	-10.334
▁grają	-10.334
▁przyjaciele	-10.3342
▁pusty	-10.3345
▁Póki	-10.3363
▁wiosną	-10.3363
▁młoda	-10.3365
▁kwiatach	-10.3369
▁krzykiem	-10.337
▁ważne	-10.337
▁dusze	-10.3371
▁mówisz	-10.3373
▁Nadzieja	-10.3375
▁wonią	-10.3375
▁nareszcie	-10.3375
▁Wracam	-10.3376
▁złego	-10.3377
▁takiego	-10.3387
▁lubię	-10.3387
▁wolne	-10.3405
▁giną	-10.3415
▁unosi	-10.3424
▁kochanie	-10.3448
▁dniu	-10.345
▁staną	-10.3451
▁deszczem	-10.3453
▁Słychać	-10.3456
jmy	-10.346
▁mąż	-10.3468
hen	-10.3474
ro	-10.3475
▁łaski	-10.3489
▁dźwiga	-10.3489
▁kamieni	-10.349
▁krótkie	-10.3502
ai	-10.3519
▁siny	-10.3523
▁prędzej	-10.3552
▁lubi	-10.356
▁bok	-10.3572
ąś	-10.3573
▁kart	-10.3582
▁siedział	-10.3595
▁słucham	-10.3609
▁roślin	-10.3611
▁schodzi	-10.3615
▁wschodzi	-10.3619
▁świecą	-10.3632
▁Grzech	-10.3636
▁kieszeni	-10.3649
▁Otchłań	-10.3665
▁ojczyzny	-10.3665
▁wiosnę	-10.3665
▁wieniec	-10.3666
▁jasność	-10.3666
▁spokoju	-10.3666
▁piosenki	-10.3667
▁środka	-10.3667
▁kość	-10.3669
▁dzwonią	-10.3672
▁jakimś	-10.3674
▁szczęśliwy	-10.3676
▁dziwnie	-10.368
▁dołu	-10.3681
▁leżąc	-10.3684
▁lica	-10.3695
▁zostało	-10.37
▁cichej	-10.3704
▁linie	-10.3705
▁ryby	-10.3714
▁łamie	-10.3714
▁motyl	-10.3715
▁ulice	-10.372
▁ogromne	-10.3721
▁brzegi	-10.3727
▁druga	-10.3727
▁Burza	-10.3731
▁zostały	-10.3733
▁siłą	-10.3736
▁Będą	-10.3743
▁młodych	-10.3743
stwo	-10.3747
łaś	-10.3751
▁małych	-10.3754
▁most	-10.3766
▁stojąc	-10.3773
tak	-10.3778
▁krótki	-10.3783
▁Tę	-10.3788
▁leśne	-10.379
ił	-10.3791
▁psy	-10.3795
▁nieco	-10.3797
▁Rozkosz	-10.38
▁Erotyzm	-10.3803
▁ramionach	-10.3808
▁samej	-10.3814
▁znać	-10.3819
▁zdanie	-10.3826
▁miałem	-10.3832
▁ro	-10.3835
▁klucz	-10.3839
▁deszcze	-10.3842
▁miało	-10.3847
▁gwar	-10.3854
▁ucho	-10.3856
nął	-10.3857
▁ciepły	-10.3861
eniem	-10.3863
▁sad	-10.3871
▁równo	-10.3882
▁ziemio	-10.3894
▁nić	-10.3895
▁morzem	-10.391
▁śmieje	-10.3916
▁cudne	-10.3917
▁drzewach	-10.3917
▁mowa	-10.3925
▁rada	-10.3929
▁Pocałunek	-10.3938
▁zresztą	-10.3941
brakło	-10.3945
▁pożar	-10.3947
de	-10.3948
▁hymn	-10.3955
▁ołów	-10.396
▁szereg	-10.3962
▁ciągnie	-10.3977
▁zorzy	-10.398
▁Cały	-10.399
▁Mnie	-10.3991
▁piersią	-10.3991
▁Radość	-10.4006
▁marzenia	-10.401
▁Patrzy	-10.4025
▁cieni	-10.4033
▁Mężczyzna	-10.4035
▁niestety	-10.4035
▁zdrój	-10.4035
▁milczenia	-10.4036
▁mórz	-10.4036
▁srebrny	-10.4036
▁lodu	-10.4036
▁wiara	-10.4036
▁Warszawy	-10.4038
▁miarę	-10.4039
▁powrotem	-10.4039
▁szyję	-10.4041
▁cierpienia	-10.4042
▁umrzeć	-10.4043
▁wzwyż	-10.4046
▁pamiętasz	-10.4048
▁śniegiem	-10.4053
▁zewsząd	-10.4054
▁grzechu	-10.4057
▁straszny	-10.4062
▁poznać	-10.4064
źli	-10.4064
▁szał	-10.4066
▁dumny	-10.4069
▁błękitu	-10.4071
▁Lud	-10.4071
▁pory	-10.4075
▁wbrew	-10.408
▁kryje	-10.4087
▁byłam	-10.409
▁drogie	-10.4092
▁swojego	-10.4094
▁pamięta	-10.4097
▁odtąd	-10.4101
▁językiem	-10.4107
▁cios	-10.4107
!!!	-10.4111
▁goni	-10.4112
cą	-10.4113
ti	-10.4113
▁ostatnie	-10.4122
▁Masz	-10.4126
▁ludziom	-10.4126
▁podróż	-10.413
▁polach	-10.4132
▁Myśli	-10.4135
▁Syn	-10.4146
▁ciężki	-10.4155
▁Da	-10.4158
▁wasz	-10.4159
▁trawa	-10.4159
▁rozumie	-10.4166
▁burzą	-10.4172
▁czyje	-10.4173
▁umarła	-10.418
▁miast	-10.4188
▁Ponad	-10.4188
▁wiedzy	-10.4189
▁dziki	-10.4191
▁Jesteś	-10.4193
kiedy	-10.4195
▁krwawy	-10.4197
„	-10.4199
▁póki	-10.4208
▁ryb	-10.422
▁tuli	-10.4222
▁winy	-10.4226
▁Miała	-10.4232
▁niebieskie	-10.4256
▁zamknięte	-10.4277
f	-10.4292
▁prąd	-10.4296
▁Widzę	-10.4297
▁strasznie	-10.4302
»...	-10.4312
▁siwe	-10.4319
S	-10.4334
▁koron	-10.4337
▁płaszcz	-10.4338
▁Ile	-10.434
ve	-10.4354
▁przemian	-10.4354
ur	-10.436
▁kark	-10.4362
▁gniazda	-10.4372
▁milczenie	-10.4376
ém	-10.4377
▁głęboki	-10.4379
▁trzeci	-10.4379
▁łóżka	-10.4383
▁sięga	-10.4384
▁zapada	-10.4388
▁północ	-10.439
▁kościoła	-10.4404
▁przenika	-10.4406
▁czarno	-10.4408
▁Próżno	-10.4413
▁Błądzenie	-10.4413
▁pachnące	-10.4417
▁zdania	-10.4419
▁zapomnieć	-10.442
▁spojrzeć	-10.442
▁łóżku	-10.442
▁kościele	-10.4421
▁pustkę	-10.4421
▁oczami	-10.4421
▁przyszła	-10.4422
▁sławy	-10.4423
▁naprzeciw	-10.4423
▁wsi	-10.4424
▁nogą	-10.4424
▁sens	-10.4425
▁Warszawa	-10.4426
▁dumne	-10.4426
▁kącie	-10.4427
▁wielu	-10.4428
▁człowiekiem	-10.443
▁ranem	-10.4433
▁Siła	-10.4434
▁Którą	-10.444
▁płakać	-10.4441
▁włosach	-10.4443
▁widząc	-10.4452
ski	-10.4468
▁szybki	-10.4468
▁samą	-10.4472
▁ciężka	-10.4478
▁przeciw	-10.4479
▁precz	-10.4481
▁oddechu	-10.4481
▁niebiosach	-10.4484
▁Tego	-10.4488
▁wieści	-10.449
▁daremnie	-10.4495
▁śpiewu	-10.4508
▁skrzydłach	-10.4509
▁Jeżeli	-10.4521
▁nowym	-10.4521
▁skarb	-10.4547
dana	-10.4548
▁chciałem	-10.4551
▁idąc	-10.4559
▁pierwszym	-10.4568
▁duszo	-10.4572
▁łączy	-10.4573
ik	-10.4574
▁stada	-10.4577
▁Czyś	-10.458
▁Tutaj	-10.4582
▁duchem	-10.4596
▁Chcę	-10.462
▁ton	-10.4624
▁krąży	-10.4633
▁Śpiew	-10.4636
▁obu	-10.4641
szędzie	-10.4657
▁martwy	-10.4658
▁ciele	-10.4671
znad	-10.4676
▁So	-10.4679
czki	-10.4687
sa	-10.469
▁stanął	-10.4692
▁Nagle	-10.4694
▁dziw	-10.4694
owane	-10.4698
▁czuć	-10.4701
▁film	-10.4703
▁Idź	-10.4709
▁kwitną	-10.4714
▁dreszcz	-10.4725
▁wieje	-10.4726
▁punkt	-10.4728
aż	-10.4735
il	-10.4744
▁Zabawa	-10.4745
▁zobaczy	-10.4746
▁nazywa	-10.4747
wał	-10.4751
▁tle	-10.4754
▁brzuch	-10.476
▁słodki	-10.4766
▁Kędy	-10.4769
▁ko	-10.4778
Oto	-10.479
▁twarde	-10.4797
▁śliczne	-10.4798
▁piosenka	-10.4804
▁powraca	-10.4804
▁piorun	-10.4814
▁Seks	-10.4815
▁Alarm	-10.482
▁gałąź	-10.482
▁czterech	-10.482
▁próg	-10.482
▁żałobie	-10.482
▁przyszłości	-10.4821
▁gardło	-10.4821
▁spojrzenia	-10.4821
▁krwawą	-10.4821
▁spadnie	-10.4822
▁historii	-10.4822
▁zewnątrz	-10.4822
▁taniec	-10.4822
▁nurt	-10.4825
▁pełną	-10.4825
▁skórę	-10.4825
▁wyjść	-10.4825
▁plaży	-10.4826
▁męża	-10.4827
▁istnieje	-10.483
▁plon	-10.483
tis	-10.4831
▁smugi	-10.4832
▁Tłum	-10.4833
▁Rodzina	-10.4833
▁poezji	-10.484
▁tacy	-10.4842
▁Wraz	-10.4845
▁polskiej	-10.4846
▁zabawy	-10.4846
▁muzyka	-10.4848
▁Piękno	-10.4848
▁skrzydłami	-10.4851
▁któremu	-10.4853
▁lęk	-10.4853
▁kół	-10.4859
▁gniazdo	-10.486
▁drzwiami	-10.4863
▁dłońmi	-10.4869
▁żywi	-10.4871
и	-10.4872
▁naraz	-10.4874
cza	-10.4875
▁Ha	-10.4877
▁oddechem	-10.488
▁dalekich	-10.4881
▁przeszłość	-10.4885
▁blasków	-10.4888
do	-10.4889
▁nisko	-10.489
▁darmo	-10.4893
▁trąb	-10.4895
▁każe	-10.4896
▁źródła	-10.4901
▁dachu	-10.4905
▁pieszczoty	-10.4907
▁19	-10.4907
▁Było	-10.4912
▁wchodzi	-10.4913
▁znalazł	-10.4918
▁rzucił	-10.4918
▁boru	-10.4919
▁nieożywiona	-10.4921
▁Wielkie	-10.4925
▁śmiechem	-10.4937
▁części	-10.4941
▁Myśl	-10.4944
▁boi	-10.4946
▁Miał	-10.4948
▁losy	-10.4953
▁liczy	-10.4962
▁słuch	-10.4965
ė	-10.4968
▁Ich	-10.4976
▁ciepłym	-10.4979
▁nosi	-10.4981
▁istnie	-10.4982
▁słuchać	-10.4983
▁kropla	-10.4985
sza	-10.4987
▁Oni	-10.499
▁Przyjaźń	-10.4992
▁Choćby	-10.4995
▁chyli	-10.4997
▁Trzy	-10.4997
▁Droga	-10.4999
▁domem	-10.4999
▁Stoi	-10.5001
▁List	-10.5005
▁warto	-10.5005
▁takiej	-10.5016
▁mocny	-10.5022
▁wzdycha	-10.5024
▁Podróż	-10.5025
▁myśleć	-10.5029
▁lamp	-10.5033
oną	-10.5041
▁pióra	-10.5044
bi	-10.5058
nowej	-10.5075
▁robić	-10.5076
▁senny	-10.5076
▁zbliża	-10.5077
▁wonie	-10.5093
▁Chłop	-10.51
▁spo	-10.5102
▁Przecież	-10.5106
▁grzech	-10.5109
▁obie	-10.511
▁rym	-10.5116
▁skroni	-10.5117
▁konia	-10.5123
ono	-10.5128
▁stal	-10.5132
▁boleśnie	-10.5156
▁Dość	-10.5156
▁głuche	-10.5159
▁krzyża	-10.5169
▁buty	-10.5173
▁głów	-10.5177
▁pisze	-10.5179
▁sukni	-10.518
▁kochany	-10.5183
▁szkielet	-10.5183
▁pachną	-10.5185
▁wznosi	-10.5185
▁człowiecze	-10.5186
▁łąka	-10.5192
ył	-10.5206
aip	-10.5213
▁mógłby	-10.5216
▁bić	-10.5218
▁minie	-10.5218
Kto	-10.5229
wo	-10.5231
▁huczy	-10.5232
▁Ch	-10.5233
▁dzięki	-10.5237
▁obcowanie	-10.5237
▁czole	-10.5237
▁zwierząt	-10.5237
▁łożu	-10.5237
▁wojna	-10.5238
▁pragnień	-10.5238
▁pięści	-10.5239
▁wysokie	-10.524
▁skrycie	-10.5241
▁pracę	-10.5242
▁dziatki	-10.5243
▁jasno	-10.5246
bezpieczeństwo	-10.5246
▁łoże	-10.5248
ru	-10.5249
▁drżące	-10.525
▁pragnienia	-10.525
▁Pies	-10.5251
Ryby	-10.5253
▁wziął	-10.5253
▁żadnego	-10.5253
▁czysta	-10.5254
▁kwiecie	-10.5262
▁dach	-10.5264
▁tęczy	-10.5265
▁kroków	-10.5266
▁trudem	-10.5266
▁błota	-10.5266
▁Uroda	-10.5267
▁czymś	-10.5268
▁martwych	-10.5274
▁nowego	-10.5276
▁mary	-10.5277
▁głębinie	-10.5278
▁du	-10.5282
▁liściach	-10.5284
▁dziwny	-10.5284
▁głębokie	-10.5285
▁dymu	-10.5289
▁or	-10.5291
▁pański	-10.5297
▁mgłach	-10.5297
▁Pogrzeb	-10.53
▁indziej	-10.5303
▁ogrodu	-10.5304
▁formy	-10.5304
▁kropki	-10.5307
▁iż	-10.5308
▁śmiertelne	-10.531
я	-10.5311
▁kad	-10.5312
vi	-10.5314
najmniej	-10.5316
▁Jezus	-10.5327
żem	-10.5331
▁Człowiek	-10.5334
▁kłosy	-10.5335
▁wyjdzie	-10.5343
▁kochana	-10.5344
▁pierwszych	-10.5347
▁czekają	-10.5352
▁białej	-10.5353
▁Znam	-10.5355
▁niebiosy	-10.5357
▁Leci	-10.5358
▁duży	-10.5368
▁stały	-10.5378
▁niema	-10.539
▁potężny	-10.5393
▁róża	-10.5402
▁t	-10.5412
▁le	-10.5415
▁świętych	-10.5417
▁не	-10.542
▁czysty	-10.5422
▁Kocham	-10.5428
▁napis	-10.5431
▁grzmot	-10.5437
▁Jednak	-10.544
Od	-10.5441
▁raju	-10.5448
trzymać	-10.545
▁istnienie	-10.546
▁graj	-10.5462
▁szczyt	-10.5472
▁motyle	-10.5474
▁Tw	-10.5478
▁powiada	-10.5491
▁pogrzeb	-10.5506
▁dech	-10.5509
▁Gdybym	-10.5512
▁żółte	-10.5516
▁listy	-10.5521
▁Idę	-10.553
▁wybuch	-10.5536
▁świtu	-10.5543
▁Wtem	-10.5548
▁Chciał	-10.5551
ir	-10.5552
▁kula	-10.5553
onym	-10.5561
▁jezior	-10.5577
▁kręgi	-10.5577
▁zrobił	-10.5582
▁karmi	-10.5583
▁biorą	-10.5593
▁śmieci	-10.5594
ujesz	-10.5594
Czemu	-10.5595
▁ogromny	-10.5595
ję	-10.5598
▁brudne	-10.5601
▁thee	-10.5604
▁koń	-10.5617
▁dzban	-10.5619
▁jabłoni	-10.562
nieważ	-10.5623
▁jesieni	-10.5626
▁Miłości	-10.5628
szedłem	-10.5648
▁krzyczy	-10.5657
▁laur	-10.5658
▁układ	-10.5664
▁minut	-10.5666
▁gasną	-10.5666
▁babci	-10.567
▁nadzieję	-10.5671
▁thou	-10.5671
▁zostać	-10.5672
▁palców	-10.5672
▁jasna	-10.5672
▁rašymą	-10.5672
▁roboty	-10.5672
▁któż	-10.5672
▁ciemna	-10.5672
▁Tobą	-10.5673
▁piach	-10.5673
▁szczerze	-10.5673
▁Książka	-10.5674
▁lutni	-10.5675
▁oboje	-10.5675
▁muzyki	-10.5675
▁savo	-10.5675
▁Żal	-10.5676
▁muszą	-10.5677
▁szkoda	-10.5678
▁oczywiście	-10.5678
▁miały	-10.5679
▁Niewola	-10.5679
▁strzeże	-10.5681
▁błyszczące	-10.5682
▁śmiało	-10.5683
▁skargi	-10.5685
▁drobne	-10.5685
▁ażeby	-10.5687
▁Mama	-10.5689
▁Oh	-10.5691
▁czytać	-10.5696
▁zacznie	-10.5698
▁litery	-10.5701
▁wzgórza	-10.5703
▁potrafię	-10.5704
▁ciężkich	-10.5706
▁jabłka	-10.5708
▁lewo	-10.571
▁Wolność	-10.571
▁ludzkiej	-10.5712
▁byłeś	-10.5713
▁łany	-10.5715
▁południa	-10.5721
ad	-10.5726
▁trumnie	-10.5726
rze	-10.5728
▁wzajem	-10.5729
▁puszczy	-10.573
▁niosąc	-10.5738
▁pióro	-10.574
▁ludu	-10.574
▁Choroba	-10.5741
▁bracie	-10.5741
▁skórze	-10.5741
▁bliska	-10.5741
▁chłopcy	-10.5742
▁boju	-10.5744
▁kobiet	-10.5746
▁La	-10.5746
▁duma	-10.5747
▁błyszczy	-10.5748
▁gaju	-10.5754
▁uśmiechu	-10.5754
▁para	-10.5756
▁wielkiego	-10.5758
▁piszę	-10.5765
zą	-10.5767
▁czyli	-10.5768
2	-10.578
▁szumią	-10.5784
▁dymy	-10.5788
▁bólem	-10.579
▁jaką	-10.5795
▁samych	-10.5811
▁przestał	-10.5817
nij	-10.582
žodži	-10.5822
▁Twarz	-10.5826
▁ustami	-10.5829
nąć	-10.5836
▁he	-10.5839
▁żale	-10.5849
▁słowami	-10.5849
▁Sława	-10.5857
▁wali	-10.5857
▁gest	-10.5862
▁anioła	-10.5863
▁pociąg	-10.5866
▁brata	-10.5867
▁nici	-10.5867
▁tęczowy	-10.5873
▁jeść	-10.5875
▁słowie	-10.5875
▁posąg	-10.5876
▁odwieczny	-10.5877
▁nagi	-10.5883
▁słoneczne	-10.5916
Daj	-10.5918
se	-10.5919
▁wrócić	-10.5923
▁wpada	-10.5934
onej	-10.5937
▁wiemy	-10.594
ór	-10.5949
▁zielonym	-10.5954
▁boże	-10.5964
▁straż	-10.5968
▁He	-10.5971
▁ostatnim	-10.5973
▁piękno	-10.5974
▁2	-10.5976
▁piór	-10.5983
▁Gdzież	-10.5983
czas	-10.6001
▁bawi	-10.6001
▁gęsi	-10.6008
▁now	-10.601
▁wierzy	-10.6016
▁gwałt	-10.6023
▁grzmi	-10.6026
▁Th	-10.6028
▁wspólne	-10.6039
▁nieznany	-10.6052
▁boski	-10.6057
▁ser	-10.6066
▁rzek	-10.607
▁kielich	-10.6078
▁ciągną	-10.6079
▁spacer	-10.6079
▁pozna	-10.6089
▁odpowiedzi	-10.6095
wi	-10.6098
▁pieści	-10.6102
▁progi	-10.6105
▁cieszy	-10.6106
▁wyrasta	-10.6107
▁Czego	-10.6107
▁mokre	-10.6109
▁nadal	-10.6112
▁ziół	-10.6118
▁lśniące	-10.6122
▁miękko	-10.6125
▁błogo	-10.6126
▁dzieckiem	-10.6126
▁mogile	-10.6126
▁mlekiem	-10.6126
▁milczeniu	-10.6126
▁zdarzeń	-10.6126
▁ócz	-10.6126
▁gardle	-10.6126
▁lód	-10.6126
▁źródeł	-10.6126
▁brzóz	-10.6126
▁wiośnie	-10.6126
▁spojrzeń	-10.6126
▁uszach	-10.6127
▁głucho	-10.6127
▁Polsce	-10.6127
▁tavo	-10.6128
▁radośnie	-10.6128
▁wrota	-10.6129
▁chwałę	-10.6129
▁grobem	-10.613
▁długą	-10.613
▁znaleźć	-10.6131
▁perły	-10.6132
▁stopami	-10.6133
▁wir	-10.6133
▁dreszcze	-10.6133
▁powierzchni	-10.6134
wróć	-10.6134
▁komuś	-10.6134
▁codziennie	-10.6134
▁znienacka	-10.6137
▁pracą	-10.6137
▁przyjacielu	-10.6144
▁Pi	-10.6145
▁mózgu	-10.6146
▁Dziad	-10.6147
▁stopą	-10.6147
▁uścisku	-10.6149
▁rosą	-10.6152
▁ludzkich	-10.6153
▁pełni	-10.6154
▁it	-10.6156
▁tajemnicy	-10.6157
▁szeptem	-10.6157
▁inną	-10.6157
▁pająk	-10.6163
▁garść	-10.6167
▁wąż	-10.6169
▁krokiem	-10.6171
▁tysiąca	-10.6172
▁głębiny	-10.6174
▁pustych	-10.6175
▁prochu	-10.6177
▁milczeniem	-10.6179
▁wesoły	-10.618
▁chore	-10.618
▁grzechy	-10.618
▁zatem	-10.6186
▁korony	-10.6186
▁pierwsza	-10.6188
▁drzemie	-10.6189
▁stracił	-10.6189
▁Ob	-10.6189
▁Żona	-10.6192
▁stopni	-10.6192
▁pień	-10.6193
▁Chyba	-10.6197
▁dąb	-10.6198
▁Chryste	-10.6198
▁Czuję	-10.62
▁Jedna	-10.6201
▁szumie	-10.6204
▁Rośliny	-10.6205
▁języku	-10.6205
▁czyż	-10.6205
▁otchłanie	-10.6208
▁jasnej	-10.6209
▁re	-10.621
▁grzywy	-10.6223
nów	-10.6231
▁macie	-10.6238
▁Będziem	-10.624
▁królow	-10.6251
▁gładki	-10.6253
▁orł	-10.6258
▁kurz	-10.6261
▁ruchem	-10.6263
▁człowieku	-10.6266
▁ulicą	-10.6267
▁szczęściem	-10.6273
▁łodzi	-10.6276
▁znaczenia	-10.6281
▁Polski	-10.6284
▁uczy	-10.6286
▁cuda	-10.6291
yk	-10.6295
▁Jeno	-10.6308
▁ocean	-10.6314
▁Ar	-10.6315
▁biało	-10.6324
▁Ko	-10.6325
▁papier	-10.6326
▁Twoi	-10.6334
▁winem	-10.6337
▁małym	-10.6341
▁kładą	-10.6346
▁świeży	-10.6347
▁Tajemnica	-10.6352
▁powodu	-10.6358
▁Chciałbym	-10.6369
▁szumiące	-10.6371
▁wstanie	-10.6374
reszcie	-10.6379
▁Głos	-10.6383
▁płaczę	-10.6384
▁szeroko	-10.6396
▁krzyżu	-10.6405
Cóż	-10.6414
▁bieg	-10.642
pi	-10.6423
▁Ogród	-10.6428
▁Wiedza	-10.6432
▁sal	-10.6434
Gdzie	-10.6435
▁pęd	-10.6438
▁Kot	-10.6448
▁ogon	-10.6448
▁ludzką	-10.6452
▁wilk	-10.6456
▁próżni	-10.6459
▁ogniste	-10.6459
▁porze	-10.6461
▁mroczny	-10.6469
▁znał	-10.6474
▁uścisk	-10.6475
▁święci	-10.6477
▁gorzki	-10.6477
▁et	-10.648
raz	-10.6481
▁dwu	-10.6482
▁pro	-10.6492
▁Koń	-10.6492
▁żądz	-10.6493
▁błysk	-10.6496
▁suną	-10.6498
▁bur	-10.6501
▁pomoc	-10.6504
▁form	-10.6507
▁moment	-10.6513
sie	-10.6518
▁szklane	-10.6525
▁prawdziwe	-10.6529
▁brud	-10.6533
▁prosty	-10.6537
▁Byłem	-10.6538
▁pisał	-10.6544
▁zdroje	-10.6545
▁spojrzenie	-10.6558
▁wesele	-10.6558
▁pewne	-10.6562
▁ostro	-10.6562
▁autobus	-10.6564
Wiem	-10.6569
▁mogił	-10.6575
▁wznoszą	-10.6577
▁zawoła	-10.6587
▁weźmie	-10.6588
▁szli	-10.659
łbym	-10.6591
▁szepce	-10.6591
▁Tej	-10.6595
▁Wizja	-10.66
▁wonny	-10.6601
▁pozwala	-10.6602
▁nawzajem	-10.6602
▁ogóle	-10.6602
▁piekieł	-10.6602
▁lustrze	-10.6602
▁niewiele	-10.6602
▁skrzydłem	-10.6602
▁wojnę	-10.6602
▁treść	-10.6602
▁łoża	-10.6602
▁szkło	-10.6602
▁chłopców	-10.6603
▁nigdzie	-10.6603
▁łzę	-10.6604
▁wiarę	-10.6604
▁małą	-10.6604
▁dyszy	-10.6605
▁dziadek	-10.6606
▁czerwoną	-10.661
▁drga	-10.661
▁zachód	-10.6611
▁reszty	-10.6612
▁walki	-10.6612
zwał	-10.6614
▁Rozstanie	-10.6615
▁Boska	-10.6615
▁dziadka	-10.6616
▁przyrodą	-10.6617
▁dolę	-10.6618
▁niedzielę	-10.662
▁przechodzi	-10.662
▁odchodzi	-10.662
▁psa	-10.6623
▁nędzy	-10.6623
pa	-10.6626
▁Bom	-10.6626
▁pociągu	-10.6629
▁modlitwy	-10.6631
▁Lubię	-10.6632
▁umierać	-10.6633
▁zobaczyć	-10.6634
▁в	-10.6635
▁szelestem	-10.6636
▁wróg	-10.6636
▁kolumny	-10.6636
▁piekła	-10.6638
▁ustom	-10.6639
▁tłumie	-10.6642
▁ścianę	-10.6646
▁si	-10.6647
▁ofiary	-10.6647
▁pary	-10.6648
▁obłoku	-10.6652
▁żywych	-10.6652
▁porządku	-10.6653
G	-10.6657
T	-10.666
ich	-10.6666
▁nos	-10.6666
▁zorze	-10.6667
▁lotu	-10.6668
▁dźwięków	-10.6668
▁kształtów	-10.6669
▁chcemy	-10.6669
▁siedzieć	-10.6671
▁karty	-10.6672
okół	-10.6672
▁imieniu	-10.6679
▁zimna	-10.668
▁późno	-10.6687
▁olbrzymie	-10.6688
▁koty	-10.6691
▁znajomy	-10.6691
0	-10.6691
▁zioła	-10.6694
▁wskroś	-10.6694
▁wyraz	-10.6694
▁Sz	-10.6695
▁burze	-10.6696
al	-10.6699
▁dzika	-10.6705
▁płot	-10.6712
▁chcieli	-10.6717
▁śpią	-10.6724
▁panna	-10.6725
▁Jedn	-10.6729
▁chcąc	-10.6733
▁Żeś	-10.6737
▁widma	-10.6744
▁ładnie	-10.6747
▁ucha	-10.6763
▁młodzi	-10.6764
▁Swe	-10.6775
▁odbija	-10.6777
▁Odrodzenie	-10.6779
▁nocne	-10.6781
▁sk	-10.6784
czka	-10.6788
▁rudy	-10.6792
▁polem	-10.6794
skie	-10.6796
▁spełni	-10.6802
▁zimno	-10.6812
kie	-10.6816
▁Su	-10.6819
▁Białe	-10.6821
▁miejsc	-10.6821
▁pieni	-10.6822
▁chwyta	-10.6829
▁nicości	-10.683
▁Gwiazdy	-10.6838
dź	-10.684
▁przebiega	-10.6844
▁Jakie	-10.6856
▁obraca	-10.6862
▁prosi	-10.687
▁koni	-10.6874
▁Dar	-10.6876
▁patrzysz	-10.6884
▁kołysał	-10.6911
cji	-10.6914
▁rady	-10.6923
▁spojrzał	-10.6931
acji	-10.6935
▁Cicho	-10.6945
▁zaśpiewa	-10.6949
onnych	-10.695
▁własny	-10.6962
▁ludzki	-10.6966
▁kule	-10.6967
▁stąpa	-10.6974
▁rzecze	-10.6977
▁chłop	-10.6978
▁szła	-10.6982
▁tik	-10.6994
▁pustym	-10.6996
▁dudni	-10.7
▁mamo	-10.7001
▁płaczem	-10.7003
kryć	-10.7008
▁starczy	-10.7012
3	-10.7013
▁powtarza	-10.7019
Jeśli	-10.702
▁step	-10.7023
▁sercach	-10.7024
▁patrzał	-10.703
▁długim	-10.703
▁czekał	-10.7034
▁wracam	-10.7034
▁szron	-10.704
▁żołnierz	-10.7041
▁głupi	-10.7042
▁pasie	-10.7049
▁szerokie	-10.705
▁szklany	-10.7054
▁kochał	-10.7055
łóż	-10.7069
▁zamknięty	-10.7081
▁Szum	-10.7088
▁jęczy	-10.7088
▁milczy	-10.7093
ras	-10.7095
▁wierny	-10.7099
▁Pieśń	-10.7102
▁ksiądz	-10.7102
▁ojczyzna	-10.7102
▁pozostaje	-10.7102
▁siostra	-10.7102
▁wziąć	-10.7102
▁ziarno	-10.7102
▁mogło	-10.7102
▁wschód	-10.7102
▁pokoleń	-10.7102
▁trwoga	-10.7102
▁sześć	-10.7103
▁wiosno	-10.7103
▁mądrość	-10.7103
▁plecy	-10.7103
▁tańcu	-10.7103
▁chęć	-10.7103
▁książkę	-10.7104
▁mleko	-10.7104
▁nieskończoność	-10.7104
▁Pieniądz	-10.7104
▁Dłoni	-10.7105
▁aniołowie	-10.7105
▁mięsa	-10.7106
▁cichą	-10.7107
▁szlak	-10.7108
▁rankiem	-10.711
▁jedyną	-10.711
▁dziewczynę	-10.7111
▁Nirwan	-10.7112
▁gum	-10.7113
▁cnoty	-10.7114
nki	-10.7115
▁there	-10.7115
▁matek	-10.7116
▁znikąd	-10.7119
▁trzepot	-10.7119
▁God	-10.7119
▁odejść	-10.7119
▁Pal	-10.7122
▁bramie	-10.7122
▁gazety	-10.7123
▁wieczora	-10.7123
▁Patrząc	-10.7124
▁rozmowy	-10.7124
▁żółtych	-10.7128
▁jękiem	-10.7129
▁gliny	-10.7129
▁przyjaciół	-10.713
▁obłokach	-10.7131
▁pustka	-10.7138
▁ostatniego	-10.7139
▁sztuka	-10.7139
▁wkrótce	-10.7144
▁pocałunki	-10.7144
▁Wieś	-10.7145
▁została	-10.715
▁pozostał	-10.715
esz	-10.7151
▁wspaniały	-10.7156
▁szły	-10.7156
▁Dzieci	-10.7161
▁mieszkania	-10.717
▁falę	-10.7173
▁górach	-10.7173
▁domek	-10.7176
▁Zagłada	-10.7179
▁linii	-10.718
▁słodką	-10.7181
▁mieni	-10.7181
▁Chleb	-10.7182
▁zielonych	-10.7182
▁Konflikt	-10.7182
▁Drugi	-10.7183
▁lśnią	-10.7183
▁losu	-10.7183
▁Płynie	-10.7184
▁poeta	-10.7193
▁ukryty	-10.7194
tym	-10.7195
▁tamtej	-10.7199
▁Ba	-10.7202
▁rycerze	-10.7202
▁błękity	-10.7203
▁idziesz	-10.7208
▁synu	-10.7208
▁Prawda	-10.7209
▁jaw	-10.7212
or	-10.7221
▁niżej	-10.7221
▁raj	-10.7222
▁tkwi	-10.7222
▁Żałoba	-10.7224
▁Zapach	-10.7239
edług	-10.7242
▁domów	-10.7251
▁kle	-10.7252
ywać	-10.7254
▁rodzaj	-10.7255
▁czerni	-10.7262
▁pełny	-10.7272
▁wcześniej	-10.7281
▁wóz	-10.73
▁poznał	-10.7307
į	-10.7314
▁grube	-10.7318
▁Sielanka	-10.7319
▁zapomniał	-10.7321
▁dała	-10.7322
▁nocach	-10.7326
▁sypie	-10.7328
▁układa	-10.7329
tki	-10.7331
▁większy	-10.7336
▁Koniec	-10.7336
▁marmur	-10.7338
▁drzewem	-10.734
▁mieszka	-10.7343
▁mleczne	-10.7345
▁litości	-10.7345
ec	-10.7355
▁możemy	-10.7355
▁czasów	-10.7357
▁otworzy	-10.7364
▁may	-10.7364
any	-10.7368
ės	-10.7373
▁puka	-10.7383
▁Woła	-10.7388
▁promienie	-10.7396
▁harf	-10.7412
aus	-10.7418
▁Czeka	-10.7419
▁brzęk	-10.7424
▁Złote	-10.7429
▁gorący	-10.744
▁chmura	-10.7456
▁stają	-10.7458
▁wspóln	-10.7463
▁Szatan	-10.7464
▁jedzie	-10.7466
▁spadł	-10.7474
▁staw	-10.7484
eć	-10.7492
▁drżąc	-10.7493
tych	-10.7494
▁zrobi	-10.7496
▁chłodn	-10.7499
▁horyzont	-10.7501
▁gwiazdą	-10.7505
▁mas	-10.751
▁For	-10.751
▁zgon	-10.7514
Coś	-10.7517
▁Artysta	-10.752
▁biega	-10.7522
▁czyny	-10.753
▁śpiewne	-10.753
▁krajobraz	-10.7536
▁Tych	-10.7539
▁leje	-10.754
▁dają	-10.7543
▁baśni	-10.7548
jść	-10.7552
▁wisi	-10.7553
ęs	-10.7559
łączyć	-10.7563
▁krawędzi	-10.7566
▁siada	-10.7576
▁piękności	-10.7578
▁strzęp	-10.7583
▁smaku	-10.7584
miast	-10.7587
▁Dłoń	-10.7587
▁tchnienie	-10.7588
▁udaje	-10.7589
▁lice	-10.7591
▁Dokąd	-10.7596
▁pragnie	-10.7598
▁ogląda	-10.7599
obec	-10.7609
▁ponury	-10.761
▁pacierze	-10.7611
▁czerwieni	-10.7612
▁Broń	-10.7612
▁lepsze	-10.7617
▁szukam	-10.7619
▁mogłe	-10.7624
▁mogli	-10.7625
▁mundur	-10.7627
▁krótko	-10.7627
▁het	-10.7628
▁Polskę	-10.7628
▁nadzieją	-10.7629
▁przecinek	-10.7629
▁tętno	-10.7629
▁zdjęcie	-10.7629
▁ławce	-10.763
▁wojnie	-10.763
▁brzozy	-10.763
▁suche	-10.763
▁brwi	-10.763
▁czołem	-10.7631
▁palcami	-10.7631
▁piekło	-10.7631
▁gołębi	-10.7632
▁ukochanej	-10.7632
▁pilnie	-10.7634
▁tchu	-10.7634
▁Naród	-10.7635
▁wrażenie	-10.7635
▁tydzień	-10.7636
nt	-10.7636
▁wznak	-10.7636
▁tędy	-10.7636
▁zasnąć	-10.7637
▁żyję	-10.7637
▁kawy	-10.7637
▁niedoli	-10.7639
el	-10.7639
▁kołem	-10.7639
▁płomieni	-10.7639
▁zachodu	-10.7639
▁stołu	-10.764
▁kimś	-10.7641
▁nóżki	-10.7641
▁Mrok	-10.7643
▁pościeli	-10.7643
▁Krwią	-10.7645
▁nogach	-10.7645
▁okolicy	-10.7648
J	-10.765
▁drobnych	-10.765
▁not	-10.765
▁kochasz	-10.7652
▁ofiar	-10.7653
▁wystarczy	-10.7655
▁miliony	-10.7656
▁rosa	-10.7662
▁ścianach	-10.7664
▁wichry	-10.7664
dę	-10.7666
▁wiecznej	-10.7667
▁krwawych	-10.7671
▁śmiertelny	-10.7672
▁strzępy	-10.7678
▁srebrnej	-10.768
▁zostawił	-10.7682
▁jesienią	-10.7684
▁Obyczaje	-10.7684
▁jęki	-10.7685
▁łąkach	-10.7689
▁płomieniem	-10.7692
▁walczyć	-10.7692
▁lampy	-10.7693
▁doli	-10.7694
▁głodny	-10.7698
Kon	-10.7701
▁wodne	-10.7701
▁płatki	-10.7704
▁rude	-10.771
▁Właśnie	-10.771
▁Pierś	-10.7712
▁przyjaźń	-10.7713
▁historia	-10.7713
our	-10.7715
▁gaśnie	-10.7724
▁wierszu	-10.7726
▁miną	-10.7726
▁kolan	-10.7728
▁Płyną	-10.7729
▁prawdy	-10.773
zwykle	-10.7731
▁krwawi	-10.7732
▁forma	-10.7732
▁trafi	-10.7735
▁Złot	-10.7736
▁trupy	-10.7739
▁Cał	-10.7741
▁błędny	-10.7744
▁śnią	-10.7744
▁lasem	-10.7748
▁idziemy	-10.7749
▁imiona	-10.7752
▁kwitnie	-10.7755
▁wołam	-10.7758
▁smętny	-10.7761
▁Toż	-10.7764
▁palcem	-10.7771
ali	-10.7775
▁piętra	-10.7776
▁ostatniej	-10.7777
▁krzyże	-10.778
▁głosów	-10.7787
▁miło	-10.7791
▁kroczy	-10.7796
▁trumna	-10.7796
ejść	-10.7797
▁ziemski	-10.7797
▁polskie	-10.78
▁falach	-10.7805
cych	-10.7813
et	-10.782
▁upadł	-10.7822
▁Pana	-10.7822
▁znamy	-10.7824
▁poszła	-10.7824
ską	-10.7855
▁robią	-10.7856
▁dawnej	-10.7859
▁Spotkanie	-10.7861
▁chwieje	-10.7861
▁myślisz	-10.7872
▁wyszedł	-10.7873
▁torb	-10.7875
▁błękitny	-10.7876
▁marzyć	-10.7887
jechać	-10.7891
▁słuchał	-10.7896
▁milczące	-10.79
Nad	-10.7902
м	-10.7902
▁rusza	-10.7909
▁otwart	-10.7912
rą	-10.7921
))))))))))))	-10.7932
▁ono	-10.7937
▁spotyka	-10.7939
▁dniach	-10.794
...”	-10.7944
▁chodzę	-10.7949
▁kar	-10.795
▁odpowie	-10.7958
▁mózg	-10.7969
▁wieczorne	-10.797
▁ba	-10.7973
wały	-10.7973
▁odwraca	-10.7975
▁czytał	-10.7978
▁ląd	-10.7978
▁ruin	-10.7986
▁sąsiedni	-10.7988
jącej	-10.799
▁bolesny	-10.7991
▁Ot	-10.7992
▁zapał	-10.7999
▁nocami	-10.8005
▁One	-10.8006
▁plan	-10.8007
▁rząd	-10.8012
▁trąca	-10.8012
▁Same	-10.8022
▁stan	-10.8033
▁Trudno	-10.804
!..	-10.8041
▁szumiący	-10.8044
▁Zda	-10.8049
▁port	-10.805
ust	-10.806
▁maszyn	-10.8067
▁wiosenny	-10.8075
▁Jan	-10.8078
▁milcząc	-10.8078
▁przepaści	-10.8086
▁Sztuka	-10.809
▁skryty	-10.8093
▁opuszcza	-10.8093
mo	-10.8094
▁Flirt	-10.8094
▁kochane	-10.8095
▁bezmiar	-10.8096
▁planet	-10.8108
▁skrzypi	-10.812
▁tajemne	-10.8127
▁Tai	-10.8128
▁polski	-10.8129
▁Ne	-10.8135
▁mieści	-10.8138
ących	-10.8139
▁porywa	-10.814
pomóż	-10.814
▁wita	-10.8144
▁odbicie	-10.8144
▁love	-10.8147
▁szkła	-10.8147
póki	-10.8153
▁lustra	-10.8154
▁uczucia	-10.8158
▁zdjęcia	-10.8158
▁pejzaż	-10.8159
▁biedny	-10.8159
▁tajemnicze	-10.8168
▁łańcuch	-10.817
szliśmy	-10.8176
▁płynąć	-10.8177
vana	-10.8178
▁Literat	-10.8178
▁zagląda	-10.8178
▁Nir	-10.818
▁Żydzi	-10.8182
▁Religia	-10.8184
▁akurat	-10.8184
▁ludzkość	-10.8184
▁wioski	-10.8184
▁wroga	-10.8184
▁przypomnieć	-10.8184
▁przestworze	-10.8184
▁śpiewając	-10.8185
▁you	-10.8186
▁Li	-10.8186
▁poranku	-10.8186
eliśmy	-10.8186
▁pozostanie	-10.8186
▁wlecze	-10.8186
▁samotność	-10.8186
▁Duż	-10.8186
owania	-10.8186
▁wolności	-10.8187
▁przeżyć	-10.8187
▁uśpione	-10.8188
▁widzą	-10.8188
▁żołnierze	-10.8189
▁wspomnienia	-10.819
▁nogami	-10.819
▁pustki	-10.819
▁ścieżki	-10.8192
▁zwłoki	-10.8197
▁lic	-10.82
▁rosę	-10.8201
▁zgonie	-10.8201
▁pieniądze	-10.8202
▁walce	-10.8202
▁straszliwe	-10.8205
▁czując	-10.8205
E	-10.8206
▁widziałam	-10.8207
▁tęsknotą	-10.8207
▁Gra	-10.8207
▁płomienia	-10.8207
▁słyszysz	-10.8208
▁kwiecia	-10.8209
▁szybę	-10.8209
▁sieć	-10.8211
▁palmy	-10.8211
▁pierwszego	-10.8212
▁wdzięk	-10.8214
▁murów	-10.8218
▁nazwać	-10.8219
▁plamy	-10.8219
▁szyi	-10.822
▁owoce	-10.8222
▁imienia	-10.8222
▁strąca	-10.8222
▁hej	-10.823
▁mano	-10.8231
▁uderzył	-10.8232
▁niebiosów	-10.8233
▁Prócz	-10.8234
▁zbrodni	-10.8236
sma	-10.8236
▁zamienia	-10.8237
▁mogiłą	-10.8237
▁żądzą	-10.8238
▁warkoczy	-10.8238
▁chcecie	-10.824
▁czule	-10.8242
▁trawę	-10.8242
▁większe	-10.8243
▁skrzy	-10.8243
▁żelazne	-10.8244
▁zimy	-10.8244
▁gołębie	-10.8251
▁żałobne	-10.8251
▁synem	-10.8256
▁chata	-10.8256
▁That	-10.8257
▁mlecz	-10.8257
▁wiecznym	-10.8259
▁sp	-10.826
▁dziwy	-10.8263
▁obrazem	-10.8264
▁miecze	-10.8264
▁wyje	-10.8264
▁Słucha	-10.8265
▁Której	-10.8268
▁bi	-10.8271
▁błogi	-10.8271
▁granice	-10.8273
▁Piekło	-10.8273
▁die	-10.8274
▁ojców	-10.8278
▁zabija	-10.8283
▁zieloną	-10.8283
▁Lato	-10.8284
▁ścianą	-10.8284
▁cichych	-10.8287
▁przestrzenie	-10.829
▁młotem	-10.8291
▁rozpaczą	-10.8291
▁zatrzyma	-10.8293
puścić	-10.8296
▁podoba	-10.8301
▁ognisty	-10.8302
▁płynąc	-10.8307
▁kamieniem	-10.8307
.»	-10.8307
▁dźwięku	-10.8309
▁Spójrz	-10.8311
▁mroki	-10.8314
▁Król	-10.8314
▁kurs	-10.8317
▁nocnej	-10.832
▁spadła	-10.8322
ba	-10.8325
▁oddycha	-10.8328
▁gram	-10.833
▁czasami	-10.8333
▁długich	-10.834
▁kraje	-10.8349
▁rzucam	-10.835
▁kota	-10.835
▁czekać	-10.835
▁gwiazdom	-10.8352
Śmierć	-10.8361
▁zapala	-10.8362
▁płuc	-10.8363
▁Ż	-10.8365
▁rozwija	-10.8366
▁równy	-10.8366
▁Patrzę	-10.8367
▁ruchy	-10.8372
dzień	-10.8375
▁wypełnia	-10.8383
▁bruk	-10.8392
▁Now	-10.8393
▁Bardz	-10.8393
Hej	-10.8394
Dziś	-10.8394
▁gość	-10.8394
nadto	-10.8399
▁chory	-10.8401
▁uśmiechy	-10.8405
▁anioły	-10.8406
▁lekki	-10.8409
▁Byle	-10.841
▁świst	-10.841
niosę	-10.841
ber	-10.8413
oja	-10.8415
▁zbroi	-10.8415
Ach	-10.8426
▁skwar	-10.8427
▁środek	-10.8428
▁Słyszę	-10.8429
...)	-10.843
▁szyb	-10.8432
▁śpiewam	-10.8438
imo	-10.8438
▁miękki	-10.8444
▁kwiatem	-10.8447
nicy	-10.845
▁Długo	-10.8452
▁płakał	-10.8457
▁morskie	-10.8464
upadła	-10.8469
▁zwija	-10.8472
padł	-10.8479
rwie	-10.8479
▁Czyn	-10.8486
zę	-10.8491
▁panią	-10.8502
▁różowy	-10.8506
▁trzecie	-10.8519
▁star	-10.8522
▁ciernie	-10.8525
▁zapomni	-10.8528
▁pańskie	-10.8532
▁chodzić	-10.8532
▁słowik	-10.8533
▁wszelkie	-10.8538
▁legł	-10.8549
▁zimnym	-10.8551
▁liściem	-10.8558
▁śpiewem	-10.8558
▁kryształ	-10.8563
▁dziewczę	-10.8576
łożyć	-10.8577
▁br	-10.859
▁łóżko	-10.8596
▁podziemne	-10.8606
▁żadne	-10.8622
gość	-10.8623
▁jezioro	-10.8625
▁zwraca	-10.8625
▁trupa	-10.863
▁letni	-10.8631
▁działa	-10.8632
dając	-10.864
▁głębin	-10.8643
▁czuły	-10.8645
▁wszechświat	-10.8647
▁wracają	-10.8651
▁wyrywa	-10.8657
▁Musz	-10.8658
▁grub	-10.8666
▁bar	-10.8677
▁odpowiada	-10.8677
ałem	-10.8691
▁wiew	-10.8693
ar	-10.8694
▁poezj	-10.8694
▁pomyśl	-10.8696
▁przeraża	-10.8696
▁Naj	-10.8701
▁łabędzi	-10.8704
▁huk	-10.871
▁telefon	-10.8717
▁zamieci	-10.872
ale	-10.872
▁bujn	-10.8722
▁Stał	-10.8723
▁sumienia	-10.8726
▁studni	-10.8737
▁siedzą	-10.8739
ri	-10.874
▁wieńce	-10.8741
wal	-10.8745
▁ciska	-10.8747
▁Śnieg	-10.875
▁v	-10.8755
▁wszedł	-10.8759
▁spał	-10.8763
▁tłuste	-10.8763
▁płyt	-10.8765
▁żegna	-10.8766
▁palą	-10.8767
▁przejdzie	-10.8772
▁grzbiecie	-10.8772
▁książek	-10.8772
▁początek	-10.8772
▁siostry	-10.8772
▁natychmiast	-10.8772
▁Lyg	-10.8772
▁węgiel	-10.8772
▁mleka	-10.8772
▁największy	-10.8772
Śród	-10.8773
▁zawiei	-10.8773
▁ludźmi	-10.8773
▁ogarnia	-10.8773
▁life	-10.8773
▁bogowie	-10.8773
▁rączki	-10.8773
▁palec	-10.8773
▁zębami	-10.8774
▁dobrą	-10.8774
▁grozy	-10.8774
▁pośpiechu	-10.8775
▁nadzieje	-10.8775
▁hasło	-10.8775
▁zwłaszcza	-10.8775
▁grobów	-10.8776
▁sosny	-10.8776
▁żonę	-10.8776
▁powodzi	-10.8777
▁Dwa	-10.8777
▁palcach	-10.8779
▁ognie	-10.8779
▁oblicza	-10.878
▁lilie	-10.8782
▁narody	-10.8782
▁tamtych	-10.8782
▁płomienie	-10.8782
▁srebrna	-10.8782
▁niepokój	-10.8782
▁zboże	-10.8783
▁Ojca	-10.8784
▁czemuż	-10.8785
▁żony	-10.8785
▁szybie	-10.8787
▁śpiąc	-10.8787
ks	-10.8787
▁ogromnie	-10.8788
▁boję	-10.8788
▁krainy	-10.8788
▁placu	-10.8791
▁robił	-10.8792
▁rzece	-10.8793
▁łagodnie	-10.8794
▁listek	-10.8795
▁Twego	-10.8796
▁wydał	-10.8797
▁rysy	-10.8798
▁cudnie	-10.8799
▁Mała	-10.8799
▁prie	-10.88
▁zdań	-10.8802
▁kosy	-10.8803
▁kurzu	-10.8803
▁mową	-10.8804
▁iskry	-10.8805
▁szaty	-10.8806
▁mrokiem	-10.8807
▁westchnieniem	-10.8807
▁tęcza	-10.8807
▁polskich	-10.8809
▁czynią	-10.8812
▁ciężkim	-10.8813
▁oknami	-10.8816
▁thy	-10.8816
▁wiedziałem	-10.8816
▁sąsiada	-10.8817
▁słodkich	-10.8818
▁szara	-10.8819
▁ulicach	-10.8819
▁słodyczy	-10.8819
▁kul	-10.8821
▁żyłach	-10.8825
▁pytam	-10.8827
▁powstał	-10.8829
▁drugiego	-10.8831
▁bytu	-10.8832
▁wstydu	-10.8833
ji	-10.8834
▁pomocy	-10.8834
▁krzew	-10.8838
▁Dni	-10.8838
sy	-10.8841
▁uciekł	-10.8845
▁widoku	-10.8845
▁Niż	-10.8845
▁robię	-10.8852
▁bramą	-10.8854
ns	-10.886
▁gęstym	-10.8863
▁oh	-10.8863
▁Ręce	-10.8867
▁ramionami	-10.8867
▁Nuda	-10.8867
ha	-10.8868
▁Zwierzęta	-10.8869
▁Patriota	-10.8869
▁Przemoc	-10.8869
▁obcym	-10.887
▁Twoja	-10.8871
▁powiedzą	-10.8874
▁srogi	-10.8875
▁zmroku	-10.8876
ent	-10.8877
▁padł	-10.8881
▁wargą	-10.8881
▁śliny	-10.8881
▁Ciąg	-10.8882
▁mieczem	-10.8883
с	-10.8886
▁wije	-10.8888
▁przeszły	-10.889
▁śladu	-10.8896
▁wokoło	-10.8897
▁oknach	-10.8901
▁śmiały	-10.8904
▁kamienia	-10.8909
▁ściga	-10.8912
▁szczytu	-10.8912
▁wilgotny	-10.8914
▁wiśni	-10.8915
▁samotnie	-10.8918
▁myli	-10.8918
▁martwi	-10.892
▁czyś	-10.8921
▁otwartym	-10.8922
▁zobaczył	-10.8923
▁pnie	-10.8934
▁samotne	-10.8934
▁myślał	-10.8935
zi	-10.8937
▁prędko	-10.8942
▁pływa	-10.8943
▁patrzył	-10.8951
▁granat	-10.8963
leż	-10.8972
▁Ej	-10.898
▁świtem	-10.8986
U	-10.899
▁mus	-10.8991
▁szumy	-10.8995
▁pić	-10.8997
▁chętnie	-10.9002
▁Stary	-10.9002
łożę	-10.9006
th	-10.9017
▁zbiera	-10.9018
▁Przestrzeń	-10.9031
▁Ledwo	-10.9033
anie	-10.9036
ory	-10.9038
Powiedz	-10.9041
nęła	-10.9057
rósł	-10.9058
▁będąc	-10.9062
▁sennie	-10.9064
▁bliski	-10.9068
ało	-10.9071
budzę	-10.9095
▁ryba	-10.9096
▁przyjaciel	-10.9103
Jest	-10.9106
▁tymi	-10.911
▁kochałem	-10.9116
▁Razem	-10.9117
▁spoczywa	-10.9117
▁drżał	-10.9119
▁sady	-10.9124
▁jadą	-10.9126
▁złocie	-10.9133
▁pacierz	-10.914
Tam	-10.9146
▁śmie	-10.9148
▁wybucha	-10.915
Słońce	-10.9152
▁zaklęty	-10.9152
▁trudne	-10.9153
▁stuka	-10.9153
▁Be	-10.9157
▁kruche	-10.9163
Jeszcze	-10.9169
▁wilgotne	-10.9173
▁chodź	-10.9176
▁sąd	-10.9177
▁chwil	-10.9179
▁niósł	-10.9187
tek	-10.9191
▁spotka	-10.9204
▁chodził	-10.9207
▁Widziałem	-10.921
▁kapelusz	-10.921
▁dokładnie	-10.921
▁chat	-10.9213
lek	-10.9222
▁wypada	-10.9226
▁drzewie	-10.9226
▁jutrzni	-10.923
▁wspomina	-10.9231
▁panny	-10.9232
▁lepszy	-10.9237
daję	-10.924
▁tęskni	-10.9244
▁słodycz	-10.9247
▁łan	-10.9248
▁płonący	-10.9255
▁pocisk	-10.9256
▁Pas	-10.9257
▁powiew	-10.9259
▁wiodą	-10.926
▁dotyk	-10.9262
rzucić	-10.9272
▁radio	-10.9275
▁tan	-10.9295
▁ukryte	-10.9297
▁gorycz	-10.93
▁tony	-10.9302
▁słaby	-10.9304
paść	-10.9304
▁bog	-10.9306
marli	-10.9309
▁róg	-10.9309
▁sztandar	-10.9316
im	-10.9318
▁kłos	-10.9319
▁robak	-10.9322
▁obszar	-10.9324
bite	-10.9329
▁dywan	-10.9329
▁wewnętrzny	-10.9334
▁pił	-10.9336
▁mocniej	-10.9336
▁jedyne	-10.9337
▁Wówczas	-10.9338
Serce	-10.9338
▁spadają	-10.9339
▁nienawiści	-10.9344
▁stanę	-10.9345
▁skryte	-10.9345
▁samotności	-10.9348
▁wieży	-10.9353
▁Boży	-10.9359
▁kolor	-10.9362
▁wodospad	-10.9371
▁Gdym	-10.9372
▁miłe	-10.9373
▁tron	-10.9381
▁Don	-10.9385
▁poety	-10.9386
▁wszak	-10.9387
▁Opieka	-10.9389
▁zwisa	-10.939
▁pytania	-10.9391
▁ranka	-10.9392
▁kawałki	-10.9393
▁Lustro	-10.9396
▁obłąkany	-10.9397
▁przyjemnie	-10.9397
▁tysięcy	-10.9397
▁świątyń	-10.9397
▁Pójdę	-10.9397
▁ogrody	-10.9397
▁Samobójstwo	-10.9397
▁plecach	-10.9397
▁plecami	-10.9397
▁Twórczość	-10.9398
▁piwo	-10.9398
▁nęci	-10.9398
▁lyg	-10.9398
▁pojęcia	-10.9398
▁ustanku	-10.9398
▁przypływ	-10.9398
▁całość	-10.9398
▁samochodu	-10.9398
▁obecność	-10.9398
▁wieczną	-10.9398
▁schody	-10.9399
▁jabłko	-10.9399
▁przędzie	-10.9399
▁wypadek	-10.9399
▁Władza	-10.9399
▁Stworzenie	-10.9399
▁przerażeni	-10.9399
▁tymczasem	-10.9399
▁szkole	-10.9399
▁Thou	-10.94
▁pobliżu	-10.94
▁rozlewa	-10.94
▁wieczna	-10.94
▁przyszłe	-10.94
▁heart	-10.94
▁grobach	-10.94
▁kochanka	-10.9401
▁jutra	-10.9401
▁wolność	-10.9401
▁mroczy	-10.9402
▁śniadanie	-10.9402
▁wiarą	-10.9402
▁Zdrada	-10.9402
▁miód	-10.9402
▁matkę	-10.9403
▁jodły	-10.9403
▁dookoła	-10.9404
▁snują	-10.9404
▁siana	-10.9404
▁locie	-10.9404
▁jagody	-10.9405
▁czaszki	-10.9405
▁zobaczę	-10.9406
▁Anna	-10.9408
▁marzę	-10.9408
▁meble	-10.9409
▁zdrowa	-10.941
▁zawisł	-10.941
▁prawdę	-10.9411
▁zginął	-10.9412
▁spotkanie	-10.9413
▁Musi	-10.9413
▁swobody	-10.9414
▁troski	-10.9416
▁dolinie	-10.9417
▁kątach	-10.9418
▁gdziekolwiek	-10.9418
▁niewoli	-10.9418
▁Mars	-10.9422
▁chłopca	-10.9424
▁umiesz	-10.9424
▁szukał	-10.9425
▁szeregi	-10.9425
▁wysoka	-10.9426
▁bladą	-10.9427
▁dziury	-10.9428
▁bliskie	-10.9428
▁nożem	-10.9429
▁świętym	-10.943
nika	-10.9431
▁napisem	-10.9431
▁mowie	-10.9432
▁zachodzie	-10.9433
▁temat	-10.9436
▁odmęty	-10.9438
▁nagie	-10.9439
▁zrozumieć	-10.944
▁doliny	-10.944
▁pragnę	-10.9442
▁Kiedyś	-10.9443
▁chwilą	-10.9445
▁treści	-10.9445
Y	-10.9446
▁Wiesz	-10.9447
▁luli	-10.9448
▁zrywa	-10.945
▁synów	-10.9451
▁kwiatki	-10.9452
▁lekkie	-10.9452
▁świętej	-10.9454
wiał	-10.9454
▁błękitem	-10.9455
▁wieże	-10.9456
▁policzki	-10.9458
▁wytęża	-10.9459
▁ludów	-10.946
▁złości	-10.9461
▁nieboże	-10.9462
▁par	-10.9466
▁podstaw	-10.947
▁skronie	-10.9471
▁Dusz	-10.9472
▁zapadł	-10.9472
▁unosząc	-10.9474
▁dachy	-10.9474
▁wstęg	-10.9474
▁chodzą	-10.9475
▁sprawę	-10.9477
▁wiecznych	-10.948
▁jesienny	-10.9484
▁spójrz	-10.9489
▁potu	-10.949
▁okręty	-10.9491
▁smętne	-10.9493
▁umieram	-10.9495
▁purpurowe	-10.9496
▁siostro	-10.9498
▁Poświęcenie	-10.9498
▁szarpi	-10.9499
▁gasi	-10.9501
▁czarem	-10.9503
▁sznury	-10.9507
▁wstecz	-10.9507
▁tłoczy	-10.9507
▁snom	-10.9507
▁ramieniu	-10.9508
▁Czarne	-10.9513
▁pędem	-10.9513
▁swobodnie	-10.9516
▁złych	-10.9516
▁Siw	-10.9517
▁wichrem	-10.9518
▁śladem	-10.9522
▁Mów	-10.9523
▁pieszczotą	-10.9525
▁kas	-10.9526
▁kroku	-10.9528
▁wchodzę	-10.9536
▁Drzewa	-10.9538
▁pogoni	-10.9541
▁krzyżyk	-10.9542
▁trafia	-10.9542
dzieści	-10.9548
▁kochanek	-10.9553
▁Śpij	-10.9558
▁wzroku	-10.9561
▁krzyżem	-10.9563
▁gdzież	-10.9564
▁piękn	-10.9568
▁stworzył	-10.9568
▁at	-10.9571
▁sprawa	-10.9571
▁cudny	-10.9573
▁powiesz	-10.9573
▁tłumy	-10.9576
mierz	-10.9579
▁wieczorny	-10.959
nęły	-10.9592
▁pust	-10.9594
▁jar	-10.96
nic	-10.9607
▁czystości	-10.961
▁znaczą	-10.9611
▁weź	-10.9611
żyć	-10.9617
▁oddam	-10.962
▁In	-10.962
▁maleńki	-10.9621
▁łagodne	-10.963
▁biorę	-10.9638
ui	-10.9641
▁zwie	-10.9642
▁przyśni	-10.9649
▁kwitnące	-10.9651
mas	-10.9659
▁kolory	-10.9661
sko	-10.9662
▁żegnam	-10.9672
▁Dobranoc	-10.9674
▁cześć	-10.9675
▁śmiał	-10.968
nd	-10.9683
▁sie	-10.9684
ano	-10.9686
▁żarzy	-10.9686
▁starym	-10.9688
men	-10.9692
▁Wasz	-10.9697
▁jakich	-10.97
▁latem	-10.9709
isz	-10.971
▁up	-10.9718
jął	-10.972
▁jakiego	-10.9722
▁umysł	-10.9731
▁zgrzyt	-10.9734
▁wrócił	-10.9738
▁żniwa	-10.9739
▁czekając	-10.9745
▁chora	-10.9748
▁błaga	-10.9751
00	-10.9752
emną	-10.9754
Ł	-10.9755
owanie	-10.9764
▁soli	-10.9764
tnie	-10.9765
▁książka	-10.9766
▁rzeźbi	-10.977
▁jedyna	-10.9774
▁Pr	-10.9777
▁leżał	-10.9777
ania	-10.978
▁pewn	-10.9782
▁węże	-10.9783
▁anieli	-10.9792
▁groźny	-10.9793
▁błyskawic	-10.9794
▁paląc	-10.9796
twa	-10.9798
▁Umie	-10.9799
skiej	-10.98
▁czułe	-10.9801
rzy	-10.9804
▁kry	-10.981
▁bohater	-10.9818
▁szarym	-10.982
▁wstają	-10.9823
▁żółty	-10.9824
▁fiolet	-10.983
ant	-10.9836
▁najwyższy	-10.984
lej	-10.9849
▁wzgórz	-10.9851
▁prezent	-10.9853
▁zostawia	-10.9861
▁opowiada	-10.9863
▁dowie	-10.9864
▁niemy	-10.9866
▁wcześnie	-10.9868
▁wszech	-10.987
▁wiosenne	-10.9871
▁rozpozna	-10.9873
▁mocą	-10.9874
▁win	-10.9876
wą	-10.9888
▁den	-10.9888
▁szop	-10.9893
▁mężczyzna	-10.9899
icher	-10.9903
▁chciało	-10.9903
▁mocne	-10.9904
▁smęt	-10.9911
▁umarły	-10.9913
▁całować	-10.9915
▁śmieją	-10.9918
▁śpiące	-10.9918
▁kontur	-10.9954
▁schodzą	-10.997
▁Sto	-10.9973
▁położył	-10.9975
▁Raj	-10.9978
oglądać	-10.998
Pan	-10.9981
▁cmentarza	-10.9983
▁Lesz	-10.9986
▁żywioł	-10.999
▁czyha	-10.999
▁Zosi	-10.999
▁rój	-10.9991
▁wstał	-10.9993
ти	-10.9997
▁Zna	-11.0001
▁smutni	-11.0001
▁wybiera	-11.0007
▁zbudził	-11.0007
▁mogłaby	-11.001
▁błąka	-11.0012
▁widmo	-11.0013
▁Mu	-11.0015
▁módl	-11.0016
▁wspomnienie	-11.0018
▁uroczyst	-11.0019
▁paru	-11.0019
▁Okręt	-11.002
▁zboża	-11.002
▁wnętrze	-11.002
▁syk	-11.0022
▁už	-11.0022
▁tryska	-11.0028
▁zakwita	-11.003
▁Jedzenie	-11.003
▁przestworza	-11.0033
▁tajemniczy	-11.0034
▁toczą	-11.0037
▁bogi	-11.0037
▁przelewa	-11.0038
▁kochanki	-11.0039
▁tańczą	-11.0042
▁możliwości	-11.0043
▁zastęp	-11.0044
▁krzyczą	-11.0049
gów	-11.005
▁nadmiar	-11.0055
▁zemst	-11.0056
▁wołanie	-11.0059
▁silny	-11.0059
▁głodne	-11.006
▁jūs	-11.0063
▁brzemię	-11.0064
▁przestwór	-11.0064
▁wielkość	-11.0064
▁wezmę	-11.0064
▁wydarzeń	-11.0064
▁modlę	-11.0064
▁rzeczywistość	-11.0064
▁srebra	-11.0064
▁szeleści	-11.0064
▁szybciej	-11.0064
▁zostanę	-11.0064
▁litość	-11.0064
▁Cmentarz	-11.0064
▁Lekko	-11.0064
▁prośb	-11.0064
▁piętrze	-11.0064
▁kelkite	-11.0064
▁zalewa	-11.0064
▁Wolności	-11.0065
▁rzepkę	-11.0065
▁cierpień	-11.0065
▁Zmysły	-11.0065
ozycja	-11.0065
▁Alkohol	-11.0065
▁spełniona	-11.0065
▁orzeł	-11.0066
▁plemię	-11.0066
▁przyjdą	-11.0066
▁krowy	-11.0066
▁siedzę	-11.0066
▁przypadkiem	-11.0067
▁czystą	-11.0067
▁odzywa	-11.0067
▁Wysoko	-11.0067
▁hukiem	-11.0067
▁lada	-11.0067
▁starość	-11.0068
▁mięso	-11.0068
▁męką	-11.0069
▁gotów	-11.007
▁resztę	-11.007
▁zamęt	-11.0071
▁zębów	-11.0072
▁najlepiej	-11.0073
▁izby	-11.0073
▁sława	-11.0073
▁Wisły	-11.0074
▁wierzb	-11.0076
▁Serc	-11.0077
▁długa	-11.0077
▁krańc	-11.008
▁sosen	-11.0081
▁tyłu	-11.0083
▁pogrzebie	-11.0085
▁zgrzyta	-11.0086
▁zgodnie	-11.0088
▁wargami	-11.0088
▁dziewczęta	-11.0089
▁rodzą	-11.009
▁nazwy	-11.009
▁huragan	-11.009
▁groty	-11.009
▁prosić	-11.0091
▁szybach	-11.0092
▁pochodnie	-11.0092
▁kole	-11.0093
▁piwnicy	-11.0094
ucha	-11.0094
▁parti	-11.0097
▁kropli	-11.0097
▁papieru	-11.0099
▁gromada	-11.0099
▁zrozumie	-11.0101
▁wolą	-11.0102
jutrz	-11.0103
▁główk	-11.0104
▁starego	-11.0105
▁dziewice	-11.0105
ot	-11.0106
▁wargach	-11.0108
▁żyją	-11.011
▁kropel	-11.0111
▁borów	-11.0111
▁tracą	-11.0111
▁bryły	-11.0111
▁ciężarem	-11.0112
▁puchu	-11.0114
▁cudów	-11.0115
▁dławi	-11.0116
▁nagłe	-11.0117
aux	-11.0119
▁ciepłych	-11.0119
▁srebrnych	-11.0119
▁okrutne	-11.0121
▁najlepsze	-11.0122
▁nocną	-11.0123
▁drwi	-11.0123
▁gniazd	-11.0124
▁wyszła	-11.0124
▁murem	-11.0126
się	-11.0127
▁krajobrazy	-11.0128
▁znaczenie	-11.013
▁Góra	-11.0132
▁płynące	-11.0133
▁śpij	-11.0136
▁kwiatami	-11.0136
▁dźwiękiem	-11.0137
▁straży	-11.0139
▁wierzył	-11.014
▁tata	-11.0141
▁szczyty	-11.0143
▁jęku	-11.0144
leciał	-11.0145
▁taip	-11.0146
▁większ	-11.0146
▁społeczna	-11.0147
▁skarby	-11.0152
pór	-11.0153
▁spotkał	-11.0155
▁kolei	-11.0158
▁skrzydlaty	-11.016
▁zmienić	-11.0161
▁Mija	-11.0162
▁Szar	-11.0163
Pod	-11.0168
▁tłucze	-11.0169
▁pijany	-11.0172
▁wiadomości	-11.0172
▁Zwierzę	-11.0173
▁przyszło	-11.0174
▁gorzką	-11.0174
▁Imię	-11.0174
które	-11.0176
▁Pokaż	-11.0176
▁wiedzie	-11.0176
▁muzykę	-11.0177
▁granicy	-11.0177
▁gwiezdny	-11.0179
▁dziwnym	-11.0179
▁stoisz	-11.0182
▁kartki	-11.0185
▁potęgi	-11.0185
▁porwał	-11.0185
▁rodzinne	-11.019
▁żywo	-11.0191
▁spalony	-11.0194
▁organy	-11.0195
▁zasypia	-11.0197
▁pieścić	-11.0201
▁znikł	-11.0202
▁ścieżka	-11.0205
▁laty	-11.0205
owanych	-11.0211
▁malowane	-11.0213
szą	-11.0216
▁ryk	-11.0224
▁spłynie	-11.0226
Jam	-11.0228
▁burzę	-11.0236
▁papierosa	-11.0239
▁domach	-11.0242
▁cokolwiek	-11.025
▁bronią	-11.0253
nieść	-11.0256
▁miasteczko	-11.0257
▁ogniska	-11.0258
▁pysk	-11.026
▁parasol	-11.0262
▁Al	-11.0264
▁tysiącem	-11.0266
▁zaklęte	-11.0268
kom	-11.0269
▁kolorowe	-11.0273
▁rzucić	-11.0277
▁bawić	-11.028
▁znacz	-11.0281
▁sieni	-11.0282
▁potęga	-11.0283
▁rzęs	-11.0284
▁Śpiewaj	-11.0286
▁znaczeń	-11.0287
▁ludy	-11.0289
▁piłka	-11.0292
uś	-11.0297
▁nazwiska	-11.0299
▁wrót	-11.0299
▁widzieli	-11.03
▁zostaw	-11.0304
▁gwiazdach	-11.0306
▁damy	-11.0306
▁detal	-11.0307
ada	-11.0313
▁nocny	-11.0316
tracić	-11.0317
ący	-11.0317
owany	-11.0319
▁Zwątpienie	-11.0319
▁jakbyś	-11.0321
nię	-11.0324
▁ster	-11.0326
▁Si	-11.0327
▁kolumn	-11.0329
▁głębie	-11.0332
▁tętni	-11.0339
▁wygodnie	-11.0339
▁gwiazdę	-11.0346
▁skóra	-11.0346
▁odrobin	-11.0346
▁Pozwól	-11.0353
▁mąk	-11.0354
▁niosę	-11.0355
▁niemi	-11.0357
▁kamienne	-11.0362
▁Całe	-11.0365
▁odszedł	-11.0368
▁jesteście	-11.0371
ówki	-11.0375
▁Ileż	-11.0385
▁Maria	-11.039
▁dziwn	-11.0392
▁omdlewa	-11.0398
▁Śpiewa	-11.0406
▁V	-11.041
▁opar	-11.0412
в	-11.0415
▁dymi	-11.0418
▁ram	-11.0419
▁mglisty	-11.0434
cznie	-11.0444
dze	-11.0453
▁chwieją	-11.0463
▁ład	-11.0464
▁Szuka	-11.0465
▁mokry	-11.0465
▁zginie	-11.0465
▁boga	-11.0465
▁pierwsz	-11.049
▁płuca	-11.0491
▁kąt	-11.0497
▁ubogi	-11.0498
▁męczy	-11.0509
▁poszedł	-11.0511
▁przejrzyste	-11.0512
łby	-11.0523
nięte	-11.0526
▁będziem	-11.053
▁Każda	-11.0532
▁nastał	-11.054
▁służy	-11.0543
Zmartwychwstanie	-11.0545
per	-11.0547
▁źródło	-11.0553
▁alarm	-11.0558
bok	-11.056
▁wierz	-11.056
▁gaj	-11.0563
▁ran	-11.0565
Że	-11.0566
▁Wiersz	-11.0567
tų	-11.0573
▁deski	-11.0575
▁rzeko	-11.0598
▁anielskie	-11.06
▁Każde	-11.0605
▁brył	-11.0617
▁Iż	-11.0625
▁miesiące	-11.0627
▁rzekła	-11.0628
▁abym	-11.063
▁smutnie	-11.0634
▁trop	-11.0637
▁rozumiem	-11.064
▁pomyślał	-11.0642
▁kolej	-11.0648
R	-11.0649
▁czarodziej	-11.065
▁człek	-11.0651
▁drewniany	-11.0659
▁minął	-11.0661
▁Mar	-11.0662
▁Jaka	-11.0663
▁świeżo	-11.0664
▁budząc	-11.0668
czku	-11.0672
▁nut	-11.0675
▁tuman	-11.0686
▁ciągłe	-11.0691
▁wpo	-11.0694
▁ranny	-11.0698
▁urok	-11.0698
▁unoszą	-11.0703
▁dostał	-11.071
▁Straszn	-11.071
▁Biały	-11.0714
▁pr	-11.0715
▁blok	-11.0717
▁zwycięski	-11.0724
▁bukiet	-11.0725
▁mówili	-11.0729
▁wichr	-11.0733
▁cierpienie	-11.0734
▁gęste	-11.0737
▁świątyni	-11.0738
▁bucha	-11.0741
▁szatan	-11.0745
▁Siedzi	-11.0746
▁perspektyw	-11.0752
▁akord	-11.0755
▁buja	-11.0756
▁zdarzy	-11.076
kuje	-11.076
▁trwoży	-11.0763
▁zło	-11.0765
▁sekund	-11.0766
▁Komu	-11.0767
▁modlić	-11.077
▁zestaw	-11.0771
▁telewizor	-11.0776
ųjų	-11.0777
▁Pokój	-11.0777
▁Ksiądz	-11.0778
▁dziesięć	-11.0778
▁niedbale	-11.0778
▁podłodze	-11.0778
▁zawczasu	-11.0778
▁zmęczone	-11.0778
▁мене	-11.0778
▁wielkości	-11.0778
▁lustrem	-11.0778
▁pobliski	-11.0778
▁pomału	-11.0778
▁Pieśni	-11.0779
▁imieniem	-11.0779
▁usłyszy	-11.0779
▁krzaki	-11.0779
▁starzy	-11.0779
▁klatce	-11.0779
▁bajki	-11.078
▁getta	-11.078
▁rolę	-11.078
▁Warszawie	-11.078
▁Pozory	-11.078
▁chłodem	-11.078
▁chłodu	-11.078
▁chwale	-11.078
▁obcą	-11.078
▁córka	-11.078
▁podnoszą	-11.0781
▁numer	-11.0781
▁opowieści	-11.0781
▁Twoją	-11.0781
▁błoto	-11.0781
▁szkle	-11.0781
▁kobiecie	-11.0782
▁łzą	-11.0782
▁Pamiętam	-11.0782
▁Boża	-11.0782
▁lulaj	-11.0782
▁otworzę	-11.0782
▁mniejsza	-11.0783
▁poszły	-11.0783
▁zębach	-11.0783
▁Proszę	-11.0783
▁okulary	-11.0784
▁lilii	-11.0784
▁pustce	-11.0784
▁uparcie	-11.0784
▁jutrzenki	-11.0785
▁żelazem	-11.0785
▁snami	-11.0785
▁zmysły	-11.0786
▁zmysłów	-11.0786
▁pocałunku	-11.0786
▁pęknie	-11.0787
▁butelki	-11.0787
▁ściska	-11.0789
▁drewna	-11.0789
▁ramieniem	-11.0789
▁synku	-11.0789
▁głodna	-11.0789
▁ubrania	-11.0791
bić	-11.0792
▁tajemnic	-11.0793
▁wierzchu	-11.0795
▁widokiem	-11.0795
▁okazuje	-11.0796
▁upiory	-11.0796
▁Pański	-11.0797
▁chwała	-11.0798
▁Smutno	-11.0799
▁modlitwę	-11.0799
▁formie	-11.08
▁klęski	-11.08
B	-11.08
▁tłuszcz	-11.0801
podobna	-11.0802
▁Niesie	-11.0802
▁kolejny	-11.0802
▁wichru	-11.0802
▁sioła	-11.0802
▁sprzęty	-11.0803
▁kątem	-11.0803
▁niczem	-11.0803
▁mocz	-11.0803
▁błyski	-11.0803
▁nieskończoności	-11.0804
▁szczytów	-11.0804
▁trudzie	-11.0804
▁żagle	-11.0805
▁sprawdza	-11.0806
▁stołem	-11.0807
▁znajdziesz	-11.0808
▁błyszczą	-11.0808
▁pójdziemy	-11.0808
▁wzięła	-11.081
▁krążą	-11.0811
▁kulę	-11.0811
▁rodzaju	-11.0813
▁przybywa	-11.0814
cież	-11.0814
▁progiem	-11.0815
▁kat	-11.0815
▁smukły	-11.0816
▁wódka	-11.0816
▁jeziorem	-11.0817
▁modre	-11.0819
▁Siostra	-11.0819
hall	-11.082
zmartwychwstanie	-11.0822
▁walczy	-11.0823
▁stosy	-11.0823
▁nieme	-11.0826
▁senną	-11.0826
▁ciemnego	-11.0827
▁prostych	-11.0828
▁strzały	-11.0829
▁kamieniu	-11.0829
▁dzieła	-11.0829
▁Nowe	-11.0829
▁zmiany	-11.083
miałam	-11.0831
ię	-11.0831
▁mali	-11.0832
▁robisz	-11.0832
ński	-11.0832
▁trudu	-11.0833
▁zabić	-11.0834
▁brudn	-11.0835
▁wierzby	-11.0835
▁goryczy	-11.0836
▁obecności	-11.0837
▁muchy	-11.0839
▁trzymając	-11.0839
▁sierota	-11.084
▁tchnieniem	-11.0841
▁chlebie	-11.0842
▁starą	-11.0843
▁przeklęty	-11.0844
▁ruiny	-11.0844
▁westchnienia	-11.0845
▁obrazów	-11.0846
aj	-11.0849
▁liter	-11.0852
▁Sama	-11.0854
▁żądzy	-11.0855
▁smutnej	-11.0856
▁obcych	-11.0858
▁dzwonów	-11.0859
▁zamknął	-11.086
▁spodnie	-11.0861
▁zapomina	-11.0867
▁Nes	-11.0868
▁jawie	-11.087
▁uderz	-11.0871
▁czułość	-11.0873
▁sennym	-11.0873
▁lasach	-11.0873
▁lotem	-11.0874
▁wieczory	-11.0875
▁boskie	-11.0877
▁tłumu	-11.0878
▁rośliny	-11.0881
▁zawodzi	-11.0882
▁wzięli	-11.0884
▁are	-11.0887
▁obrazu	-11.0889
▁blaskach	-11.0889
▁chóry	-11.0889
▁drut	-11.0892
▁doskonale	-11.0892
▁żelaza	-11.0893
▁kolorze	-11.0895
▁Rozczarowanie	-11.0896
▁słyszeć	-11.0896
▁wichrze	-11.0896
▁zapomnienia	-11.0896
▁kwiatu	-11.0897
▁Odtąd	-11.0898
▁Anno	-11.0898
▁srebrną	-11.0901
▁gdybyś	-11.0902
▁musiała	-11.0902
środku	-11.0905
▁niewinn	-11.0905
▁Kuku	-11.0906
▁silniejsz	-11.0908
▁bielą	-11.0909
▁Cała	-11.0912
▁młot	-11.0915
▁ptakiem	-11.0916
▁Jedzie	-11.0916
Niechaj	-11.0918
iją	-11.0921
▁naga	-11.0923
▁tęgi	-11.0923
tej	-11.0924
▁dasz	-11.0926
▁powieką	-11.0929
żeby	-11.093
dobyć	-11.093
▁rycerzy	-11.0931
▁podziemny	-11.0932
▁całował	-11.0933
Przez	-11.094
mniej	-11.0951
▁zdążył	-11.0952
▁Ledwie	-11.096
▁odmawia	-11.0964
▁marnie	-11.0966
▁drobny	-11.0967
▁pełno	-11.0968
▁obrazki	-11.0972
ustach	-11.0973
▁rogu	-11.0977
▁lip	-11.0978
▁poziom	-11.0988
kowi	-11.0989
▁niezbyt	-11.0993
▁zanurza	-11.0994
▁ufa	-11.0995
▁korzenie	-11.1001
▁dziwna	-11.1002
▁księżycu	-11.1004
▁Graj	-11.1004
▁much	-11.1008
▁parku	-11.1009
▁cierpieć	-11.1011
▁błyszczący	-11.1014
▁Jedno	-11.1023
▁pięknych	-11.1026
▁skok	-11.1027
▁piórka	-11.1027
▁płonąc	-11.1034
▁żółtym	-11.1035
▁płynę	-11.1036
▁skrywa	-11.1038
▁я	-11.1048
Jakże	-11.105
▁umierał	-11.1051
czem	-11.1061
▁umiał	-11.1063
▁malutkie	-11.1063
▁jasnym	-11.1064
▁brać	-11.1068
▁obłęd	-11.1075
▁f	-11.108
▁cudze	-11.1088
cząc	-11.109
▁powietrzem	-11.1093
bie	-11.1095
niki	-11.1096
▁panów	-11.1097
▁modlą	-11.1097
▁jo	-11.1099
▁Rycerz	-11.11
lać	-11.11
▁wyniosł	-11.1108
▁Słowik	-11.1109
▁cierpliwie	-11.1115
▁bolą	-11.1117
▁brzucha	-11.1118
▁Powiedział	-11.1122
▁malarz	-11.1125
▁składam	-11.1126
▁stróż	-11.1131
▁obiad	-11.1149
▁oślep	-11.1157
ufać	-11.1166
▁suchy	-11.118
▁Bi	-11.1184
▁niewinne	-11.1188
▁pomnik	-11.119
chodziłem	-11.1194
▁stawia	-11.1195
▁Wie	-11.1207
▁szepty	-11.1207
▁oplata	-11.1209
część	-11.1211
▁radzi	-11.1213
▁przepych	-11.1214
▁Krzyk	-11.1215
▁zachwyt	-11.1216
▁Były	-11.1217
▁odsłania	-11.1222
▁słyszał	-11.1226
▁uczynił	-11.1229
▁obudzi	-11.1241
▁ostatnia	-11.1242
▁wiekiem	-11.1242
▁strzał	-11.1243
arz	-11.1243
nem	-11.1253
▁wołają	-11.1253
▁strzela	-11.1253
▁plac	-11.1262
▁Re	-11.1262
chodzę	-11.1264
▁czujesz	-11.1265
▁braku	-11.1266
▁Powie	-11.1269
▁tkwił	-11.1278
▁Tedy	-11.1282
▁wypełni	-11.1282
▁st	-11.1293
▁ptaka	-11.1295
▁zmieniają	-11.1302
▁szafir	-11.1302
▁sączy	-11.131
▁Dlatego	-11.1313
On	-11.1314
iał	-11.1316
orze	-11.1316
▁przegląda	-11.1316
▁popycha	-11.1317
czko	-11.1317
▁marsz	-11.1317
▁Dobrze	-11.1318
ciel	-11.1318
▁chłodzi	-11.1323
ące	-11.1324
▁wzejdzie	-11.1324
▁strun	-11.1325
▁wiecie	-11.1329
▁trzcin	-11.1331
▁miesza	-11.1332
dzi	-11.1342
▁kup	-11.1343
żeś	-11.1344
pod	-11.135
▁orszak	-11.1356
▁mak	-11.1358
ms	-11.1362
▁n	-11.1365
▁cierpi	-11.1373
▁całun	-11.1381
▁ścieka	-11.1387
▁podaje	-11.1393
▁zabaw	-11.1395
czu	-11.1402
▁rud	-11.1404
на	-11.1408
▁leć	-11.1412
▁pian	-11.1414
two	-11.1415
▁poły	-11.1419
▁wzbiera	-11.1422
▁problem	-11.1428
▁dużym	-11.1429
▁społeczn	-11.1431
ment	-11.1432
▁zwierz	-11.144
▁karabin	-11.1445
▁odmęt	-11.1445
▁ziemskie	-11.1445
▁Kwiat	-11.1447
▁Czar	-11.1447
ąt	-11.1447
▁chłopak	-11.1448
▁strop	-11.1449
wer	-11.1454
▁powiewa	-11.1456
▁Boś	-11.1461
▁przechodzą	-11.1462
gach	-11.1464
▁poszum	-11.1464
set	-11.1465
▁hi	-11.1468
▁najpierw	-11.1475
▁bomb	-11.1476
▁chylą	-11.1476
▁pajęczyn	-11.1481
▁mile	-11.1483
▁grzbiet	-11.1483
dobrych	-11.1485
▁sterczą	-11.1488
▁płaskie	-11.1488
▁panu	-11.1489
▁odległości	-11.149
▁skry	-11.1491
▁towarzysz	-11.1491
▁bywał	-11.1492
▁srebrnym	-11.1494
▁chaos	-11.1495
▁dalekim	-11.1495
Był	-11.1495
▁gotowy	-11.1497
▁osi	-11.1498
og	-11.1499
▁Strój	-11.15
▁uczucie	-11.1504
▁westchnienie	-11.1509
▁nadzieja	-11.151
▁umierają	-11.1514
ełen	-11.1518
▁system	-11.152
▁boje	-11.152
▁zmęczony	-11.1521
▁cichu	-11.1522
▁sufit	-11.1525
▁złociste	-11.1526
▁ołtarze	-11.1526
▁wiszą	-11.1528
▁oddala	-11.1528
▁dotknął	-11.1531
▁chrup	-11.1532
▁rzeźb	-11.1532
▁wnętrzności	-11.1533
▁zechce	-11.1534
tamtąd	-11.1535
▁wiosła	-11.1535
▁wysokości	-11.1535
leksi	-11.1536
čiau	-11.1539
▁czują	-11.154
▁skale	-11.1541
żeli	-11.1542
▁zielenią	-11.1542
▁Nieraz	-11.1544
▁upał	-11.1546
▁Najpierw	-11.1546
Zmiłuj	-11.1547
▁jaskółek	-11.1547
▁kieliszek	-11.1547
▁trwogą	-11.1547
▁trwogę	-11.1547
▁błocie	-11.1547
▁srebrem	-11.1547
▁zbóż	-11.1547
▁śliczna	-11.1547
▁żałości	-11.1547
▁szkoły	-11.1547
▁сер	-11.1547
▁Filuś	-11.1548
▁żandarm	-11.1548
▁miodu	-11.1548
▁strój	-11.1548
▁zostaną	-11.1548
▁słoneczko	-11.1548
▁dziejów	-11.1548
▁spoczął	-11.1548
▁usłyszeć	-11.1548
▁biedna	-11.1548
▁matką	-11.1548
▁skrzypiec	-11.1549
▁cichutko	-11.1549
▁miłośnie	-11.1549
▁księgi	-11.1549
▁sukienki	-11.1549
▁chęci	-11.1549
▁trzydzieści	-11.1549
▁tęsknocie	-11.1549
▁doprawdy	-11.155
▁żagiel	-11.155
▁słabości	-11.155
▁młodą	-11.155
▁dumna	-11.155
▁grozi	-11.155
▁wyłania	-11.155
▁szczęściu	-11.155
▁wysiłku	-11.155
▁zadumany	-11.1551
▁ojcze	-11.1551
▁nieustannie	-11.1551
▁bohaterska	-11.1552
▁papierze	-11.1552
▁wybrzeża	-11.1552
▁piosnka	-11.1553
▁poznania	-11.1553
▁krainie	-11.1553
▁tryumf	-11.1553
▁dans	-11.1554
▁zamieszkał	-11.1554
▁pęk	-11.1554
▁porządek	-11.1554
▁strugi	-11.1554
▁gaje	-11.1554
▁popiołu	-11.1554
▁ciasno	-11.1555
▁wzruszeń	-11.1555
▁pieca	-11.1555
▁chciałbyś	-11.1555
▁zwierciadło	-11.1555
▁dziewczynko	-11.1555
▁ujrzeć	-11.1556
▁połowie	-11.1556
▁wtenczas	-11.1556
▁widno	-11.1557
▁Hania	-11.1557
▁stacji	-11.1558
▁Matki	-11.1558
▁odwagi	-11.1559
▁głucha	-11.156
▁uwierzyć	-11.156
▁wyobraźni	-11.156
▁gryzie	-11.156
▁skraju	-11.156
▁pereł	-11.156
▁Pędzi	-11.1561
▁stado	-11.1561
▁nazwisko	-11.1562
▁pomóc	-11.1562
▁potrzeby	-11.1563
▁zamknąć	-11.1563
▁Temu	-11.1565
▁zapomnianych	-11.1566
▁sztuki	-11.1566
▁korali	-11.1566
▁głuszy	-11.1566
▁spojrzyj	-11.1567
▁roli	-11.1567
▁możliwe	-11.1569
▁Kici	-11.1569
▁zeń	-11.157
▁tramwaju	-11.1571
▁nagła	-11.1571
▁nieprawda	-11.1571
▁chaosu	-11.1572
▁słyszałem	-11.1572
▁zwiędłe	-11.1572
▁olbrzymi	-11.1573
▁zobaczysz	-11.1573
▁gruzy	-11.1574
▁rzęsach	-11.1575
zmartwychwstania	-11.1575
▁ranę	-11.1575
▁Małżeństwo	-11.1576
▁spojrzy	-11.1578
▁sunie	-11.1578
▁leśnych	-11.1579
▁Rzuca	-11.1579
▁koloru	-11.1579
▁Sił	-11.158
▁tygodnie	-11.158
▁oddać	-11.1581
▁wiernie	-11.1581
▁huku	-11.1582
▁niwy	-11.1582
▁bruku	-11.1582
▁niespokojne	-11.1582
▁szyny	-11.1583
▁gałęziach	-11.1583
▁marmuru	-11.1584
▁wstęgi	-11.1585
▁płacząc	-11.1586
▁mogiłę	-11.1586
▁żołnierski	-11.1587
▁krzywdy	-11.1587
▁drżący	-11.1588
▁oceanu	-11.1588
▁miękkich	-11.1588
ould	-11.1588
▁promieniach	-11.159
▁waszym	-11.159
les	-11.1592
▁nowina	-11.1592
▁twardy	-11.1593
▁Ciągną	-11.1593
▁pianą	-11.1594
▁twardym	-11.1595
▁tęcze	-11.1595
▁brzuchu	-11.1595
▁błękitów	-11.1595
▁tajemnice	-11.1599
jeba	-11.16
▁kryją	-11.16
▁nagich	-11.1601
▁położyć	-11.1602
▁motor	-11.1603
▁większą	-11.1603
▁rzęsy	-11.1604
▁zimnej	-11.1605
▁stoły	-11.1606
▁butach	-11.1606
▁złość	-11.1606
▁pyłem	-11.1607
▁dołem	-11.1608
▁Wielka	-11.1608
▁wietrzyk	-11.1611
▁bosy	-11.1613
▁płomienny	-11.1614
▁czynu	-11.1614
▁mistrz	-11.1614
▁rozumu	-11.1615
▁rodzice	-11.1617
▁Poza	-11.1618
▁Kara	-11.1624
▁głazem	-11.1624
▁żołnierzy	-11.1626
▁ciekawie	-11.1627
▁gniewu	-11.1628
▁glina	-11.163
▁kobietą	-11.163
▁kary	-11.1633
▁kielichy	-11.1634
▁czarów	-11.1634
▁samotna	-11.1636
▁łabędzie	-11.1639
▁zwierciadła	-11.164
▁dalekiej	-11.1641
▁trzecim	-11.1641
▁brzegów	-11.1642
▁dymem	-11.1642
▁stanęła	-11.1642
▁nieskończon	-11.1645
▁przyszły	-11.1646
eczko	-11.1646
▁zbudzi	-11.1646
▁waszej	-11.1648
▁suknie	-11.1649
▁kina	-11.165
▁wzrusza	-11.1651
▁zamiera	-11.1655
▁schyla	-11.1659
▁czułem	-11.1661
▁kołyszą	-11.1663
▁pokrywa	-11.1663
▁puchar	-11.1665
▁groźne	-11.1666
▁nieznanych	-11.1667
▁bolesne	-11.1668
▁nań	-11.1669
▁liczyć	-11.1669
▁pustej	-11.1669
▁przymierza	-11.1673
▁znój	-11.1673
▁dobranoc	-11.1674
▁Darmo	-11.1674
▁chłopcze	-11.1674
▁Nieśmiertelność	-11.1675
▁Daleko	-11.1675
▁nogę	-11.1676
▁poprzek	-11.1678
ichś	-11.1679
▁Pewn	-11.168
▁Świeci	-11.168
▁wiosen	-11.1681
▁otchłanią	-11.1683
▁beton	-11.1684
▁pryska	-11.1685
▁żydowskie	-11.1686
▁tonią	-11.1686
▁klatki	-11.1688
▁powrót	-11.1689
▁powszedni	-11.1691
▁some	-11.1691
▁ostatnich	-11.17
▁Brak	-11.1701
▁widzenia	-11.1703
▁bladym	-11.1704
▁tworzą	-11.1704
▁dobrego	-11.1706
▁rozkoszą	-11.1707
▁myje	-11.171
▁czerwień	-11.1712
▁wiekuiste	-11.1716
▁Dzwoni	-11.1719
▁pokład	-11.1724
▁ludziach	-11.1725
▁włóczy	-11.1727
▁wodo	-11.1729
▁żyły	-11.1732
▁jednem	-11.1732
ut	-11.1734
▁walka	-11.1735
▁pytać	-11.1737
stałem	-11.1738
słał	-11.1743
▁mówiła	-11.1743
▁bogaty	-11.1746
▁śniegi	-11.1746
iegoś	-11.1747
▁połysk	-11.1755
▁Ojcze	-11.1757
▁rodzina	-11.1762
▁czystej	-11.1767
▁budzą	-11.1768
▁Reszt	-11.177
▁skrył	-11.1779
▁jechał	-11.1784
ujemy	-11.1785
▁marzenie	-11.1785
▁ukochany	-11.1787
▁dziewic	-11.1793
▁fro	-11.1795
▁Miej	-11.1796
staję	-11.18
▁ros	-11.18
▁dziób	-11.1803
ste	-11.181
▁próżn	-11.1812
▁chłodny	-11.1815
jazd	-11.1816
▁drzwiach	-11.1817
▁ćmy	-11.1821
ate	-11.1824
▁Panu	-11.1828
▁różą	-11.1833
▁Przede	-11.184
długo	-11.1844
gdzie	-11.1846
▁pałac	-11.1856
▁myśląc	-11.1862
▁Dawn	-11.1869
dams	-11.1871
▁umarłem	-11.1875
▁piję	-11.1877
Miłość	-11.1878
▁ulica	-11.1879
▁auto	-11.1879
▁morzach	-11.1879
Dusza	-11.1881
▁zimowy	-11.1883
▁żyw	-11.1884
▁Naprzód	-11.1886
▁gorzej	-11.1888
▁kęs	-11.189
▁jedzą	-11.189
cę	-11.1892
liwe	-11.1898
▁Słowa	-11.1899
▁latarni	-11.1899
▁gwizd	-11.1908
▁wrócisz	-11.1913
▁śpiewy	-11.1915
▁drzemią	-11.1916
▁trumien	-11.1918
poza	-11.1935
▁śpiewny	-11.1937
1	-11.1939
Sny	-11.194
kroć	-11.1941
▁Myślę	-11.1942
▁tramwaj	-11.1946
▁strzegą	-11.1946
▁włada	-11.1947
▁bat	-11.1947
▁piszą	-11.1948
▁wieszcze	-11.1955
patrzeć	-11.1956
licznych	-11.1959
▁jedn	-11.1962
▁ziemskiej	-11.1966
▁targa	-11.1969
▁pozostawia	-11.1969
▁rzuci	-11.197
▁nieśmiertelne	-11.1973
▁Kol	-11.1992
tka	-11.1994
▁odda	-11.1994
▁bąk	-11.1996
wrócić	-11.1997
skich	-11.2
▁wieszcz	-11.2015
▁wydają	-11.2017
▁Widzi	-11.2019
▁op	-11.202
▁rzuć	-11.2029
▁usiadł	-11.2039
▁chmurą	-11.204
▁śnieżne	-11.2041
▁jakoby	-11.2044
▁łup	-11.2045
▁has	-11.2046
▁nuo	-11.2049
▁Pełne	-11.2054
jącą	-11.2054
▁ga	-11.2055
▁królewski	-11.2058
▁park	-11.2064
▁Snu	-11.2065
▁śle	-11.2066
▁otworzył	-11.2067
▁Par	-11.207
▁scen	-11.2071
▁dotyka	-11.2079
▁mieszkał	-11.2081
▁wyciągną	-11.2083
▁Lecą	-11.2094
▁niewidzialny	-11.2097
▁Ró	-11.2098
▁potężne	-11.2099
▁modlitw	-11.2099
patrzył	-11.21
▁Pa	-11.2103
▁godne	-11.2108
▁zbliży	-11.2109
rząd	-11.2113
liście	-11.2125
▁rozkaz	-11.2129
▁wspina	-11.2131
▁srebrzyste	-11.2135
▁komin	-11.2139
▁gorączk	-11.2148
ymczasem	-11.2148
▁dziewcząt	-11.2156
▁padnie	-11.2156
asz	-11.2157
▁owce	-11.216
▁łka	-11.2161
▁słony	-11.2161
▁przeto	-11.2168
▁zabił	-11.2176
▁rozbity	-11.2181
▁krzak	-11.2187
▁ojczyste	-11.2189
▁imion	-11.219
▁władz	-11.2193
▁czuwa	-11.2201
▁warstw	-11.2203
▁ślub	-11.2208
▁skurcz	-11.2212
▁Pójdź	-11.2213
▁ptasi	-11.2213
imas	-11.2219
▁szubienic	-11.2224
rzyjdzie	-11.2224
▁orzech	-11.2224
▁bandaż	-11.2233
▁doda	-11.2234
▁serdeczne	-11.2236
▁buzi	-11.2247
▁wyrzuca	-11.2253
sem	-11.2258
▁zielona	-11.2261
▁zasad	-11.2262
▁facet	-11.2268
▁czci	-11.2272
▁zapali	-11.2277
▁Ry	-11.228
▁ciemni	-11.228
▁wzruszy	-11.2281
▁armat	-11.2283
▁wprzód	-11.2283
▁podmuch	-11.2286
▁oba	-11.2286
▁wyją	-11.2287
▁un	-11.229
▁Ka	-11.2291
▁can	-11.2292
▁rzucają	-11.2292
▁wracać	-11.2293
niej	-11.2293
▁nuci	-11.2296
tę	-11.2297
tąd	-11.2298
▁Gwiazd	-11.2301
▁gmach	-11.2304
▁Czekam	-11.2312
▁lis	-11.2314
▁brudny	-11.2317
około	-11.2318
▁kol	-11.232
▁kurhan	-11.2321
▁mkną	-11.2324
▁paproci	-11.2328
▁słoneczn	-11.2332
▁płask	-11.2334
gen	-11.2335
▁bieży	-11.2343
▁swem	-11.2343
▁bzy	-11.2345
▁seks	-11.235
▁sypialni	-11.2351
▁Można	-11.2352
▁błądzą	-11.2352
▁krwawym	-11.2357
▁Precz	-11.2359
▁uczyć	-11.236
▁mijają	-11.2362
gasić	-11.2363
▁gołąb	-11.2364
▁prób	-11.2366
▁gwoździ	-11.2367
▁szalony	-11.2368
▁know	-11.2369
▁pusto	-11.2371
▁szepcze	-11.2371
▁warkocze	-11.2372
▁skacze	-11.2373
▁Widzisz	-11.2374
▁wróbel	-11.2375
▁uciec	-11.2375
pu	-11.2376
▁Duma	-11.2376
▁zachodzą	-11.2377
▁Ostatni	-11.2378
▁Bogini	-11.2379
▁zgiełk	-11.2379
▁Dziedzictwo	-11.238
▁Arkadia	-11.2381
▁Pielgrzym	-11.2381
▁Robak	-11.2381
▁bęben	-11.2381
▁ogrodów	-11.2381
▁pocałunek	-11.2381
▁łazience	-11.2381
▁Dopiero	-11.2381
▁dziecku	-11.2381
▁niepojęte	-11.2381
▁smutną	-11.2381
▁ciężką	-11.2381
▁niedziela	-11.2381
▁pleśń	-11.2381
▁zdjęciu	-11.2381
▁dyskurs	-11.2381
▁dzionek	-11.2381
▁pięść	-11.2381
▁pogody	-11.2381
▁radosny	-11.2381
▁sukience	-11.2381
▁pluszcze	-11.2381
▁rysunek	-11.2381
▁ganku	-11.2381
▁okazji	-11.2381
▁dziatek	-11.2381
▁zwątpienia	-11.2381
▁jednocześnie	-11.2381
▁męce	-11.2382
▁pierwej	-11.2382
▁ciemku	-11.2382
▁Babci	-11.2382
▁Blask	-11.2382
▁mig	-11.2382
▁pamiątkę	-11.2382
▁linią	-11.2382
▁mrozu	-11.2382
▁front	-11.2382
▁daleką	-11.2382
▁piosnkę	-11.2382
▁purpurze	-11.2382
▁zimną	-11.2382
▁lodem	-11.2382
▁futro	-11.2383
▁mūsų	-11.2383
▁cegły	-11.2383
▁ojczyźnie	-11.2383
▁straszna	-11.2383
▁śmiertelnie	-11.2383
▁murawie	-11.2383
▁herbaty	-11.2383
▁słabość	-11.2384
▁chacie	-11.2384
▁purpurą	-11.2384
▁kartkę	-11.2384
▁kniei	-11.2384
▁mękę	-11.2384
▁żałobą	-11.2385
▁jaskółki	-11.2385
▁marmurze	-11.2385
▁ptaszek	-11.2385
▁łbie	-11.2385
▁mowę	-11.2385
▁boleść	-11.2385
▁źródłem	-11.2385
▁mchu	-11.2386
▁przechodniów	-11.2386
x	-11.2386
▁ogniwa	-11.2386
▁dojrzewa	-11.2386
▁przystanku	-11.2386
ura	-11.2386
▁podwoje	-11.2387
▁runął	-11.2387
▁przejść	-11.2387
▁szczycie	-11.2387
▁kochania	-11.2387
▁otworzą	-11.2387
▁pokrzywy	-11.2388
▁podobno	-11.2388
czą	-11.2388
cu	-11.2388
▁sytuacji	-11.2388
▁popiołem	-11.2388
▁płonące	-11.2389
▁pokochać	-11.2389
▁widnokrąg	-11.239
▁błękitną	-11.239
pełznie	-11.239
▁modrą	-11.239
▁element	-11.2391
▁okienko	-11.2392
▁dumnie	-11.2392
▁twardą	-11.2393
▁muszli	-11.2393
▁złudzeń	-11.2393
▁zapomnienie	-11.2394
▁sklepu	-11.2394
▁zimę	-11.2395
▁zbawienia	-11.2395
▁poruszy	-11.2396
▁opadły	-11.2396
▁wesoła	-11.2397
▁dzieło	-11.2398
▁zwycięstwo	-11.2398
cja	-11.2398
▁wichrów	-11.2399
▁koci	-11.2399
▁pewnością	-11.24
▁skórą	-11.2401
▁gorąca	-11.2401
▁roztoczy	-11.2401
▁narodu	-11.2402
▁kolorów	-11.2402
▁world	-11.2405
▁przyczyny	-11.2405
▁sokiem	-11.2406
▁then	-11.2406
▁spotkać	-11.2408
▁zmęczenia	-11.2408
▁uśpiony	-11.2408
▁zachodzi	-11.2408
▁psi	-11.2409
▁cholera	-11.241
▁objęciach	-11.241
▁starann	-11.2411
▁koronie	-11.2411
▁pęta	-11.2411
▁wyspy	-11.2411
▁pokarm	-11.2411
▁mapa	-11.2413
▁blachy	-11.2413
▁żywc	-11.2413
▁przyszłych	-11.2413
▁kaskady	-11.2414
▁miłosnym	-11.2415
▁świętego	-11.2415
▁świstem	-11.2415
▁Długie	-11.2415
ota	-11.2416
▁Skor	-11.2417
▁myślałem	-11.2417
▁płaski	-11.2419
▁granie	-11.2419
▁czai	-11.242
▁horyzontu	-11.242
▁kipi	-11.2421
▁źrenicą	-11.2422
▁ogonem	-11.2422
▁stolicy	-11.2423
▁sploty	-11.2425
▁próżnię	-11.2425
▁kły	-11.2426
▁bu	-11.2429
▁oddał	-11.2432
▁tylu	-11.2433
kro	-11.2433
▁trupów	-11.2435
▁Czerwone	-11.2436
▁uczuciem	-11.2437
▁martwa	-11.2437
▁czynów	-11.2437
▁przynosi	-11.2439
▁położę	-11.2439
▁wydać	-11.2439
▁świeżych	-11.244
▁wieko	-11.2442
▁kurzem	-11.2442
▁błyskawice	-11.2443
▁czerwona	-11.2443
▁Pra	-11.2445
▁wyjścia	-11.2446
▁szczur	-11.2446
▁ulicę	-11.2446
▁sumie	-11.2448
▁srebrzysty	-11.245
▁melodia	-11.245
▁krucha	-11.2452
▁szczęśliwa	-11.2452
▁dziewczyno	-11.2452
▁zdarza	-11.2454
▁młodej	-11.2454
▁skałach	-11.2454
▁kamieniach	-11.2456
▁kolejn	-11.2457
▁zmierzchem	-11.2459
▁cmentarzu	-11.246
▁upada	-11.2461
▁Pu	-11.2463
▁gniewem	-11.2464
ні	-11.2465
▁niedługo	-11.2467
▁pono	-11.2469
▁poszedłem	-11.2469
▁słuchając	-11.2471
▁ogromnym	-11.2472
▁powiadam	-11.2474
▁końce	-11.2478
yć	-11.2479
▁cudem	-11.2479
dajesz	-11.2483
▁Wieszcz	-11.2484
▁parzy	-11.2487
▁trwała	-11.2492
▁tłumem	-11.2492
▁ścina	-11.2494
▁obliczem	-11.2496
▁człeka	-11.2496
▁północy	-11.2497
▁małej	-11.2497
▁senna	-11.2499
▁bladych	-11.25
▁płótna	-11.2501
▁zdało	-11.2502
▁siecią	-11.2509
▁Ant	-11.2512
▁Man	-11.2513
▁losem	-11.2514
▁Wczoraj	-11.2514
▁Upiór	-11.2515
▁Módl	-11.2518
▁Vanitas	-11.2519
▁pieniędzy	-11.2519
▁Milczenie	-11.2519
▁nosie	-11.2519
▁innej	-11.252
▁Kraków	-11.252
▁znamię	-11.2521
▁Pijaństwo	-11.2521
▁wszechświata	-11.2522
▁biegnę	-11.2523
▁Spod	-11.2523
▁pędzie	-11.2523
nek	-11.2529
▁zdradza	-11.2531
▁Janek	-11.2534
▁Aniele	-11.2537
▁ciągu	-11.2538
▁Ciemn	-11.254
▁tamte	-11.2541
▁różę	-11.2541
▁Le	-11.2543
▁twarda	-11.2544
▁szerok	-11.2548
▁koc	-11.2551
▁reszta	-11.2552
▁znane	-11.2553
▁kop	-11.2553
▁żyta	-11.2554
▁bóstwa	-11.2555
▁byłaś	-11.2557
▁wołał	-11.2557
▁szeptał	-11.2557
▁maków	-11.2559
mer	-11.256
▁piętna	-11.2561
▁radością	-11.2563
▁głazy	-11.2565
▁małego	-11.2567
▁odblask	-11.2568
▁szkarłat	-11.2574
▁kra	-11.2575
▁Or	-11.2575
▁twarzach	-11.2576
▁gąszcz	-11.2576
▁dachów	-11.2579
▁wiedziała	-11.2583
▁głębokiej	-11.2585
kowie	-11.2589
▁Cz	-11.2589
▁dola	-11.2591
▁nędza	-11.2592
▁zbłąkany	-11.2593
▁potworne	-11.2595
▁skręca	-11.2595
▁ogniach	-11.2597
▁cudowne	-11.2597
▁Stara	-11.2601
▁mężczyzn	-11.2602
▁ślepi	-11.2605
▁Getto	-11.2605
▁namiot	-11.2608
szczę	-11.261
▁Kędyś	-11.2613
▁Zamyka	-11.2614
▁odbywa	-11.2618
▁węża	-11.2621
▁przodk	-11.2626
▁syny	-11.2627
▁prawdziwy	-11.2628
▁kartka	-11.2628
▁nuda	-11.263
▁zagra	-11.263
▁głębiej	-11.2635
dawać	-11.2636
▁spokojne	-11.2637
▁szeroki	-11.264
▁powieści	-11.2642
▁pszczół	-11.2642
eczek	-11.2645
▁szale	-11.2646
siu	-11.2649
▁głębię	-11.265
▁plam	-11.2652
▁głosie	-11.2653
▁Weź	-11.2655
▁radę	-11.2655
▁brzmią	-11.2656
▁bark	-11.2656
▁Trzeci	-11.2659
sła	-11.2659
dą	-11.2659
▁oddechy	-11.2668
▁niemo	-11.2668
▁rubin	-11.2671
▁łap	-11.2674
▁pluska	-11.2676
▁Upadek	-11.2677
▁napełni	-11.2683
▁czekasz	-11.2684
▁Piersi	-11.2686
▁Zemsta	-11.2689
▁stos	-11.2692
▁zwykłe	-11.2693
▁żywic	-11.2694
▁siedząc	-11.2701
▁pustak	-11.2704
ników	-11.2708
▁Wino	-11.2709
▁gi	-11.2717
▁fo	-11.2719
▁gwiazdo	-11.2722
▁kap	-11.2725
▁szczeka	-11.2727
▁nosił	-11.2727
▁kropl	-11.2728
▁Miast	-11.2729
▁niewidzialne	-11.2732
owali	-11.2734
▁strzała	-11.2748
ся	-11.2748
▁nadchodzi	-11.2748
▁zwykły	-11.2749
ers	-11.275
▁wędruje	-11.2753
oto	-11.2754
wieją	-11.2756
▁czytam	-11.2757
▁otacza	-11.2758
▁Taniec	-11.2762
▁Druga	-11.2766
▁ujrzy	-11.2771
dzia	-11.2772
▁gotowa	-11.2773
▁srebrno	-11.2774
▁Sąd	-11.2776
▁istot	-11.2777
▁listopad	-11.278
▁Zielone	-11.2785
▁szal	-11.2785
▁dadzą	-11.2787
▁wzory	-11.2788
▁dzisiejsz	-11.2791
!...»	-11.2791
sty	-11.2794
pisać	-11.2795
▁milczący	-11.2797
▁odpływa	-11.2797
ające	-11.2806
▁liczę	-11.2806
▁wąskie	-11.2808
▁barwne	-11.2809
▁rzucał	-11.2811
▁samotn	-11.2812
▁Dobro	-11.2813
▁grosz	-11.2814
ieć	-11.282
rzucone	-11.2821
▁byłby	-11.2828
▁pomruk	-11.2829
▁strych	-11.2831
nad	-11.2836
▁płyniesz	-11.2838
▁płyn	-11.2839
▁niepewne	-11.2845
▁ciągnąc	-11.2847
▁Chrystusa	-11.285
▁trzask	-11.2859
▁trwać	-11.2862
▁zielonej	-11.2864
▁Tą	-11.2867
▁wojenk	-11.287
▁Śpi	-11.2877
bita	-11.2878
▁zakład	-11.2884
▁dziad	-11.2897
▁zajmuj	-11.2898
▁wczesn	-11.29
▁nakarmi	-11.2904
jechał	-11.2904
▁przesuwa	-11.2905
▁kolejne	-11.2907
▁ostrym	-11.2911
▁przyda	-11.2911
▁leśn	-11.2913
▁jedynym	-11.2915
▁jau	-11.2916
▁podobni	-11.2919
cięte	-11.2926
▁ple	-11.2927
daje	-11.2935
▁rozpięty	-11.2938
▁ciągły	-11.2944
é	-11.2945
▁stoczy	-11.295
▁sierp	-11.2963
▁wyrok	-11.2965
▁głosi	-11.297
▁czystym	-11.2972
▁Pyta	-11.2972
tulił	-11.2973
▁Śni	-11.2974
jeden	-11.2979
owymi	-11.2982
un	-11.2982
ącym	-11.2984
▁kręcą	-11.2989
▁stuk	-11.299
pić	-11.2993
▁modro	-11.2997
▁puszcza	-11.2999
▁ot	-11.2999
Kwiaty	-11.3
▁Kim	-11.3006
Boże	-11.3009
▁Leż	-11.3015
też	-11.302
▁czujny	-11.3025
Wszystko	-11.3027
Bóg	-11.3028
▁słowach	-11.303
▁bet	-11.3035
▁Łza	-11.3037
Jeżeli	-11.3049
▁gruba	-11.305
▁Cud	-11.3052
iny	-11.3055
▁mogiła	-11.306
▁ry	-11.306
dam	-11.3064
▁farb	-11.3072
Przed	-11.3072
▁wieża	-11.3078
▁cudown	-11.3078
▁Smutn	-11.3079
▁lazur	-11.308
▁Włos	-11.3088
▁pracują	-11.3089
rami	-11.309
▁grzebie	-11.309
▁łask	-11.3092
▁ostrza	-11.3095
▁księżycowy	-11.3096
▁trawi	-11.3108
▁słodkim	-11.3108
▁dyszą	-11.311
▁grał	-11.3111
iec	-11.3113
skroś	-11.3115
▁Marcin	-11.3116
▁mogły	-11.3116
▁żółta	-11.3119
▁tonąc	-11.3124
bił	-11.313
Dzień	-11.3131
▁królowa	-11.3132
▁lepi	-11.3133
br	-11.3135
▁niewiast	-11.3137
▁kamyk	-11.3137
▁szaf	-11.3139
▁biegnąc	-11.3139
▁rajski	-11.3139
▁sur	-11.3144
▁Andrzej	-11.3147
▁państwo	-11.315
▁mroczne	-11.3153
▁bujny	-11.3153
▁wierzą	-11.3153
▁brzęczą	-11.3155
▁szemrzą	-11.3157
▁szat	-11.316
ла	-11.3162
stwa	-11.3164
alne	-11.3169
▁wrzask	-11.3171
▁pożąda	-11.3173
▁więzi	-11.3174
sto	-11.318
▁walą	-11.3183
▁przygląda	-11.3192
▁glin	-11.3193
▁przyszli	-11.3193
rzucam	-11.3195
▁drażni	-11.3199
ani	-11.32
Każd	-11.3201
▁pochłania	-11.3203
siadł	-11.3206
▁mo	-11.3206
▁ciśnie	-11.3207
ejdź	-11.3212
▁ogni	-11.3218
▁smuga	-11.3221
▁grzyw	-11.3223
yr	-11.3223
▁statki	-11.3228
▁Się	-11.3229
▁prości	-11.3231
▁młodzieńczy	-11.3233
▁anty	-11.3233
▁tai	-11.3233
▁asfalt	-11.3236
▁Maszyna	-11.3241
▁męczarni	-11.3241
▁poeci	-11.3242
▁szos	-11.3244
acją	-11.3244
▁piją	-11.3248
▁tra	-11.3256
▁straszliwy	-11.3256
gu	-11.3256
▁samolot	-11.3261
▁flag	-11.3262
▁kosmos	-11.3262
▁Per	-11.3267
▁obchodzi	-11.3269
lewa	-11.327
▁Święto	-11.3271
▁mierzy	-11.3272
▁łapie	-11.3272
▁kieliszk	-11.3274
puść	-11.3274
▁żałuj	-11.3274
▁objęcia	-11.3275
▁wyżyn	-11.3278
▁strumienie	-11.3288
▁Lis	-11.3288
▁balon	-11.3288
▁Zbyt	-11.3289
▁Samotnik	-11.329
▁krzywo	-11.329
wrócą	-11.329
▁nastrój	-11.329
▁przyjemności	-11.329
▁ścieżce	-11.329
▁мені	-11.329
▁Pokora	-11.329
▁Ucieczka	-11.329
▁dziećmi	-11.329
▁narodów	-11.329
▁pokorze	-11.329
▁pstrąg	-11.329
▁refren	-11.329
▁czterdzieści	-11.329
▁orkan	-11.329
▁zdarzenia	-11.329
▁czerń	-11.329
▁fartuch	-11.329
▁wszerz	-11.329
▁umrę	-11.329
▁wioską	-11.329
▁rację	-11.329
▁robotę	-11.329
▁kącik	-11.329
▁spróbuj	-11.329
▁biada	-11.329
▁pięćdziesiąt	-11.329
▁Stoję	-11.329
▁Bogactwo	-11.329
▁materac	-11.3291
▁smród	-11.3291
▁Widząc	-11.3291
▁szalona	-11.3291
▁tańca	-11.3291
▁straszliwa	-11.3291
▁zapomnę	-11.3291
▁potrzebne	-11.3291
▁schodów	-11.3291
▁mnóstwo	-11.3291
▁sukienkę	-11.3291
▁księgę	-11.3291
▁jasności	-11.3292
▁chwilkę	-11.3292
▁pożera	-11.3292
▁szarość	-11.3292
▁leszczyn	-11.3292
▁koszuli	-11.3292
▁resztek	-11.3293
▁zwinn	-11.3293
▁perła	-11.3293
▁zgadnie	-11.3293
▁podłogę	-11.3293
▁dnem	-11.3293
▁okrutna	-11.3293
▁karczmie	-11.3293
▁spokojem	-11.3294
▁słowy	-11.3294
▁uboczu	-11.3294
▁wiaro	-11.3294
▁licho	-11.3294
▁łbem	-11.3294
▁wnętrzu	-11.3294
▁gromady	-11.3294
▁gałązki	-11.3294
▁żałoby	-11.3294
▁znoju	-11.3295
▁osoby	-11.3295
▁natchnienia	-11.3295
▁odpowiedź	-11.3295
▁jeziorze	-11.3295
▁kawę	-11.3295
▁poczułem	-11.3295
▁przyjąć	-11.3295
Ten	-11.3296
▁gorąco	-11.3296
▁piękność	-11.3296
▁Julci	-11.3296
▁przodu	-11.3296
▁luster	-11.3296
▁Powoli	-11.3297
▁upiorów	-11.3297
▁boża	-11.3297
▁przeszło	-11.3297
▁podłogi	-11.3297
▁świetlicy	-11.3297
▁wychodzę	-11.3298
▁Czuwaj	-11.3298
▁matce	-11.3298
▁puszcze	-11.3298
▁pocałunków	-11.3298
▁sweter	-11.3298
▁skrzypce	-11.3298
▁Cichy	-11.3299
▁tchem	-11.33
▁sadzie	-11.33
▁dotknąć	-11.33
▁wesela	-11.33
▁borem	-11.3301
▁pap	-11.3301
▁ówdzie	-11.3301
▁Wróg	-11.3301
▁Wisłą	-11.3301
▁oczki	-11.3302
▁strugą	-11.3302
▁rumieńcem	-11.3303
▁Mat	-11.3303
▁odczyta	-11.3303
▁Sługa	-11.3304
▁mądrości	-11.3304
▁łowy	-11.3305
▁ogródku	-11.3305
▁kąpieli	-11.3306
▁hula	-11.3306
▁kłamstwo	-11.3306
▁kwili	-11.3307
▁świętą	-11.3307
eczka	-11.3308
▁zamieć	-11.3308
▁nudzi	-11.3309
▁ostatecznie	-11.3309
▁porasta	-11.3309
▁Woli	-11.331
▁pochód	-11.331
▁nieistnienia	-11.3311
▁tru	-11.3312
▁zbawi	-11.3312
▁Zapomnij	-11.3312
▁napój	-11.3312
pasy	-11.3312
▁strumieniu	-11.3312
▁kłosów	-11.3312
▁powieść	-11.3313
▁odbić	-11.3313
▁grzywę	-11.3314
▁przyznać	-11.3314
▁łaskę	-11.3315
▁ojcem	-11.3315
▁wrzasku	-11.3315
▁Wisła	-11.3315
▁wierzba	-11.3315
▁płci	-11.3315
▁roje	-11.3316
▁przedtem	-11.3316
▁narodzin	-11.3317
▁batem	-11.3317
▁wdzięki	-11.3317
strzec	-11.3317
▁dumą	-11.3318
▁Leży	-11.3318
▁teatr	-11.332
▁nutę	-11.3321
▁topi	-11.3321
▁tła	-11.3321
▁Nauka	-11.3322
▁bloku	-11.3322
▁witać	-11.3322
▁mlecznych	-11.3323
▁błyskiem	-11.3324
▁Nas	-11.3324
▁every	-11.3326
▁błyśnie	-11.3328
▁zgrają	-11.3328
▁prawdą	-11.3328
znać	-11.3329
▁powiekami	-11.333
▁rozkwita	-11.3331
▁podniósł	-11.3332
▁studia	-11.3332
▁stawem	-11.3332
▁Codzienn	-11.3333
▁Złoto	-11.3333
▁przedmioty	-11.3333
▁ludzkiego	-11.3333
▁kołacze	-11.3334
▁płotem	-11.3335
▁kolano	-11.3336
▁rosie	-11.3336
▁łuny	-11.3337
▁mgłami	-11.3337
▁Zło	-11.3337
▁bogini	-11.3337
▁przybliża	-11.3337
kór	-11.3337
▁dziecino	-11.3337
▁niemożliwy	-11.3339
▁murach	-11.3339
▁źrenicy	-11.3339
▁licząc	-11.334
▁Wina	-11.334
▁dzwonek	-11.3342
▁piachu	-11.3342
▁przechodząc	-11.3342
▁Twym	-11.3343
▁farby	-11.3344
▁dumy	-11.3344
▁butów	-11.3344
▁stronach	-11.3344
▁chorych	-11.3344
▁polne	-11.3349
▁koronę	-11.3349
▁głazów	-11.3351
▁przebite	-11.3351
▁szeregu	-11.3352
▁Którego	-11.3353
▁łuki	-11.3354
▁Bim	-11.3355
▁skrada	-11.3356
▁zasłania	-11.3357
▁ród	-11.3357
▁ŚmierćI	-11.3358
▁śnisz	-11.3358
▁zerwał	-11.3358
▁bramę	-11.3358
▁zwycięstwa	-11.336
▁Mógłby	-11.3363
▁Taką	-11.3367
▁przeszła	-11.3369
▁kresu	-11.337
▁szybą	-11.3371
▁rozmowa	-11.3372
▁zostałem	-11.3374
ramach	-11.3374
▁łańcuchy	-11.3374
▁planety	-11.3375
▁tęcz	-11.3375
▁płoszy	-11.3375
▁śmieszne	-11.3376
▁drżącą	-11.3376
▁skorup	-11.3378
▁bum	-11.3379
▁wybiega	-11.3379
▁trupem	-11.338
▁jedni	-11.3381
▁łanie	-11.3381
▁żarem	-11.3382
▁mojem	-11.3385
▁znakiem	-11.3386
▁znoje	-11.3387
▁żywej	-11.3389
▁napisać	-11.339
▁zatrzymać	-11.3391
▁tortur	-11.3391
▁znaków	-11.3393
▁języków	-11.3393
▁błyskawica	-11.3393
▁sosna	-11.3395
▁gwiaździste	-11.3396
▁przynieś	-11.3396
▁dowód	-11.3397
kas	-11.3404
▁ptasie	-11.3405
▁Krzyż	-11.3407
▁dbam	-11.341
▁przyjaźni	-11.341
2.	-11.3413
▁używa	-11.3413
▁Ru	-11.3413
▁korzysta	-11.3414
▁cele	-11.3414
▁zaciska	-11.3416
▁źrenic	-11.3419
▁kolanach	-11.3419
▁bożym	-11.3419
▁cienkie	-11.3421
▁szło	-11.3422
ży	-11.3424
▁błąd	-11.3424
▁zamknięci	-11.3428
▁zapachem	-11.3429
id	-11.343
▁strzelec	-11.3432
▁miedzi	-11.3433
lec	-11.3434
▁liże	-11.3434
▁splata	-11.3436
▁Licz	-11.3436
▁pokoje	-11.3437
▁Wierzenia	-11.3437
▁herb	-11.3438
rem	-11.3438
▁króle	-11.3439
▁halo	-11.344
ujący	-11.344
▁pogodny	-11.344
▁fleks	-11.3442
▁Kaleka	-11.3442
▁kryjomu	-11.3442
▁skowronek	-11.3442
▁stworzenia	-11.3442
▁rytmicznie	-11.3446
▁wianek	-11.3447
▁gospodarz	-11.3448
▁smyk	-11.3449
▁bunt	-11.3449
▁Błogosławiony	-11.3449
wiązać	-11.3451
▁kościach	-11.3451
▁tarczy	-11.3455
▁dzwonu	-11.3459
▁moście	-11.346
dać	-11.346
▁złóż	-11.3461
▁szumu	-11.3462
nas	-11.3462
▁Gość	-11.3462
▁rogi	-11.3464
▁Czułem	-11.3464
▁tęsknię	-11.3465
▁Pójdziemy	-11.3465
▁jadem	-11.3466
▁stacja	-11.3467
▁nu	-11.3468
▁Mo	-11.3469
▁Gospodarz	-11.3471
ieje	-11.3471
▁języki	-11.3474
▁maszt	-11.3477
▁chwycił	-11.3479
kto	-11.3479
▁trawą	-11.3481
▁maski	-11.3483
▁Żadn	-11.3484
▁Mop	-11.3485
▁pokryte	-11.3485
▁głośny	-11.3488
▁doliną	-11.3489
▁cnota	-11.3496
▁smukłe	-11.3497
▁promyk	-11.3506
▁zapomniane	-11.3508
▁uroczy	-11.3509
Panie	-11.3511
▁Er	-11.3512
▁Góry	-11.3516
▁dziecinne	-11.3518
▁gromy	-11.3519
▁wspólnym	-11.3522
▁wierząc	-11.3524
▁świetny	-11.3528
▁otwórz	-11.3528
▁wyłącz	-11.3531
▁szlachetne	-11.3531
▁złotemi	-11.3531
▁dostrzega	-11.3534
▁wygięt	-11.3536
▁biegną	-11.3536
▁ściąga	-11.3542
▁złej	-11.3552
▁splot	-11.3552
▁odrywa	-11.3552
znanych	-11.3553
▁zamian	-11.3554
▁żali	-11.3555
oczy	-11.3559
▁jad	-11.3562
▁syren	-11.3562
▁napisał	-11.3567
ńskich	-11.3574
mar	-11.3575
▁ukrywa	-11.3577
▁swemi	-11.3577
▁Moc	-11.358
▁kos	-11.3584
padną	-11.3587
▁dziew	-11.3588
▁żebra	-11.3589
▁uchodzi	-11.3589
mień	-11.3589
▁żebyś	-11.359
▁Został	-11.3591
▁żalem	-11.3594
▁jęczą	-11.3595
▁duchu	-11.3596
▁Więcej	-11.3597
▁milion	-11.3598
▁pięciu	-11.3604
▁nozdrza	-11.3607
▁poranny	-11.3608
▁uczył	-11.3611
▁pragnąc	-11.3611
▁byłaby	-11.3612
nka	-11.3613
▁więdną	-11.363
▁spłyną	-11.3632
owana	-11.3642
▁pokazał	-11.3645
▁pielgrzym	-11.3645
▁gęstwin	-11.3649
▁Chwil	-11.365
▁marne	-11.365
▁płytki	-11.3656
▁brzydkie	-11.3662
▁gdyś	-11.3667
▁brał	-11.3668
▁mdlejąc	-11.367
▁gubi	-11.3677
▁trwało	-11.3678
ld	-11.3682
pina	-11.3683
▁ogarną	-11.3684
▁panem	-11.3685
▁ziem	-11.3686
▁tka	-11.3693
▁skarg	-11.3694
▁zwinięt	-11.3694
▁Szedł	-11.3699
▁Mgła	-11.3702
▁на	-11.3704
▁mądry	-11.3705
▁śwista	-11.3714
gs	-11.3718
▁czasach	-11.3719
▁Taka	-11.372
▁moimi	-11.372
▁umarłym	-11.3723
▁Mojżesz	-11.3727
▁klęka	-11.3729
dna	-11.3732
śnie	-11.3734
arka	-11.3734
▁ludzkim	-11.3735
▁sypią	-11.3752
▁wieść	-11.3753
▁Którym	-11.3758
▁czekaj	-11.3759
▁cierpki	-11.3763
ząc	-11.3764
chodzą	-11.3782
▁wtór	-11.3783
razu	-11.3784
▁zamykam	-11.3784
▁wypływa	-11.3784
▁śpiący	-11.3788
т	-11.3788
Znam	-11.3788
▁hen	-11.379
▁zmian	-11.3793
▁rób	-11.3793
▁łatwiej	-11.3795
▁stuleci	-11.3799
▁baw	-11.3802
▁nowi	-11.3806
▁garb	-11.3812
▁jesienne	-11.3818
▁wojsk	-11.3821
▁czerwonym	-11.3828
▁padają	-11.3829
▁przebywa	-11.383
▁Cnota	-11.383
▁morski	-11.3837
▁płynął	-11.3838
Do	-11.384
Wy	-11.3847
ge	-11.3849
▁bawił	-11.3862
▁dzikim	-11.387
▁najpiękniejszy	-11.3871
v	-11.3877
▁kulą	-11.3879
staną	-11.3881
▁mądre	-11.3881
▁granit	-11.3884
▁kolorowy	-11.3889
▁przebija	-11.3892
▁ugina	-11.3895
▁get	-11.3899
▁pała	-11.3899
▁uczyni	-11.3906
▁miniony	-11.3906
▁pomoże	-11.3908
▁sin	-11.391
▁Bunt	-11.3927
▁próbuj	-11.3928
▁Nu	-11.3929
▁post	-11.3929
▁żadny	-11.3931
czne	-11.3932
▁bud	-11.3936
▁krzywd	-11.3938
nu	-11.3938
▁rwał	-11.3946
▁klei	-11.3946
▁rumian	-11.395
vė	-11.3956
▁posiada	-11.3962
ein	-11.3962
ll	-11.3964
▁Chodź	-11.3977
▁wywoła	-11.3978
▁dzisiejszy	-11.3979
▁pat	-11.398
▁dr	-11.398
▁Wtenczas	-11.3985
▁tkliw	-11.3985
ezmą	-11.3987
▁Złe	-11.3992
ом	-11.3994
▁kon	-11.3996
▁siano	-11.4001
▁szedłem	-11.4001
▁мо	-11.4004
▁strat	-11.4005
▁rzuciła	-11.4005
▁Dr	-11.4007
▁Święta	-11.4008
▁pleśnią	-11.402
szedł	-11.4023
▁osiem	-11.4024
▁spoz	-11.4026
▁żyli	-11.4027
▁Dał	-11.4027
▁rozdarty	-11.4028
kazał	-11.4031
biegają	-11.4032
▁symbol	-11.4037
▁pośmiertn	-11.4039
▁wtem	-11.4041
▁łun	-11.4041
▁zdradzi	-11.4041
▁ul	-11.4045
▁Dobry	-11.4047
▁gdyż	-11.4048
▁Dawno	-11.4049
▁Chmur	-11.4053
gnie	-11.4064
▁fabryk	-11.4066
rów	-11.4069
▁głupie	-11.4071
▁Piękn	-11.4072
▁Klęska	-11.4074
▁zauważy	-11.4075
▁zwykł	-11.4077
▁kopyta	-11.4082
▁szumiąc	-11.4083
▁th	-11.4084
▁wieczyste	-11.4084
par	-11.4086
▁ciałach	-11.4087
▁pu	-11.4097
▁warkocz	-11.4097
▁straszy	-11.41
▁właściw	-11.4103
▁sąsiad	-11.4106
▁trzaska	-11.4107
ciu	-11.411
▁nocnym	-11.411
sunął	-11.4122
▁znajome	-11.4123
▁biec	-11.4124
▁kogut	-11.4127
▁Umarł	-11.4129
▁zostawi	-11.413
▁grze	-11.413
▁Fal	-11.4131
▁trucizn	-11.4134
▁łączą	-11.4135
▁sprawia	-11.4141
wki	-11.4148
gdy	-11.4149
▁rumak	-11.415
rzuca	-11.4152
▁car	-11.4155
▁wagon	-11.4155
▁gonił	-11.4157
ią	-11.4158
▁bocian	-11.4162
▁wuj	-11.4165
▁narzeka	-11.4166
lą	-11.4169
▁płaszcza	-11.4169
tóż	-11.4174
anych	-11.4175
▁ar	-11.4176
▁przeciąg	-11.4177
▁buch	-11.4181
▁pokrył	-11.4182
▁klęsk	-11.4186
prawdzie	-11.4189
▁gwint	-11.4191
pał	-11.4192
dług	-11.4193
▁abyś	-11.4194
▁hełm	-11.4196
jrzeć	-11.42
▁słania	-11.4204
▁Uśmiech	-11.4204
sen	-11.4206
▁mechanizm	-11.4208
ys	-11.421
▁trosk	-11.4211
▁wart	-11.4213
▁mleczny	-11.4213
▁snop	-11.4215
ator	-11.4215
▁strumienia	-11.4217
▁silne	-11.4219
▁strumieni	-11.422
wol	-11.422
▁braknie	-11.4221
▁wojsko	-11.4221
▁czujn	-11.4223
▁bagnet	-11.4223
▁skowyt	-11.4228
▁jaśni	-11.4231
▁kosza	-11.4231
▁błądząc	-11.4235
▁bilet	-11.4236
▁całości	-11.4238
▁odbiera	-11.4238
▁flet	-11.4239
▁Biada	-11.4239
▁wartość	-11.424
▁pasterz	-11.4241
Lubię	-11.4242
▁opowie	-11.4242
Raz	-11.4242
▁słab	-11.4243
▁tulą	-11.4245
▁drżenie	-11.4247
▁Pełn	-11.4247
▁dostanie	-11.4247
Bądź	-11.4249
▁ekran	-11.4251
▁sumienie	-11.4251
▁lament	-11.4252
łasnoręcznie	-11.4255
▁konając	-11.4256
if	-11.4256
▁tryśnie	-11.4257
Ś	-11.4258
Mój	-11.4259
▁tajemny	-11.4259
piąc	-11.426
▁śmiej	-11.426
▁grunt	-11.4261
▁cało	-11.4261
▁koniu	-11.4264
▁rzucając	-11.4264
lne	-11.4266
biegłem	-11.4268
▁Ducha	-11.4269
Tylko	-11.4269
▁bezdenne	-11.427
▁błądził	-11.4271
▁iskier	-11.4273
▁kory	-11.4275
wój	-11.4275
▁wiąże	-11.4277
▁wiadra	-11.4278
Lub	-11.4279
▁tną	-11.4279
▁pryzmat	-11.428
▁tchnie	-11.428
Trzeba	-11.4281
dom	-11.4281
▁płomyk	-11.4284
▁skrzyni	-11.4284
▁motyw	-11.4285
▁podniesie	-11.4286
▁pułap	-11.4286
▁złocisty	-11.4288
pływają	-11.4289
łamać	-11.4289
▁dżdż	-11.4289
▁tułacze	-11.4289
▁charakter	-11.429
▁Dorosłość	-11.429
▁Polityka	-11.429
▁cylinder	-11.429
▁dzieciństwa	-11.429
▁ksiąg	-11.429
▁paszport	-11.429
▁pokolenia	-11.429
▁szérok	-11.429
▁krzywy	-11.429
▁rzewne	-11.429
Rzuć	-11.429
▁Prawdziw	-11.429
▁siedmiu	-11.429
▁żałość	-11.429
▁Dziewictwo	-11.429
▁wiosło	-11.429
▁Michalik	-11.429
▁pójść	-11.429
▁naturze	-11.429
▁ochoty	-11.429
▁profil	-11.429
▁starzec	-11.429
▁pogoda	-11.429
▁wszystek	-11.429
▁Lord	-11.429
▁dwór	-11.429
▁oścież	-11.429
▁zależy	-11.429
▁jabłoń	-11.429
▁pain	-11.429
▁nieobecność	-11.429
▁death	-11.429
▁klęczkach	-11.429
▁dużą	-11.429
▁kochanków	-11.429
▁ślepa	-11.429
▁złapać	-11.429
▁stworzenie	-11.429
▁skrzynki	-11.429
▁Grzeczność	-11.429
▁pewien	-11.4291
▁never	-11.4291
▁przymierze	-11.4291
▁obróci	-11.4291
▁Zbawienie	-11.4291
▁kubek	-11.4291
▁blednie	-11.4291
▁mieszkaniu	-11.4291
▁jabłek	-11.4291
▁silną	-11.4291
▁braciszku	-11.4291
▁Kłamstwo	-11.4291
▁starsza	-11.4291
▁gorzko	-11.4291
▁piątek	-11.4292
▁earth	-11.4292
▁spocząć	-11.4292
▁nodze	-11.4292
▁próchno	-11.4292
▁silna	-11.4292
▁ziemską	-11.4293
▁dobroci	-11.4293
▁raźno	-11.4293
▁bańk	-11.4293
▁wola	-11.4293
▁dąbrowy	-11.4293
▁aniele	-11.4293
▁wytłumaczyć	-11.4293
▁Mąż	-11.4293
▁ogarnie	-11.4293
▁gęsta	-11.4293
▁grodzie	-11.4293
▁idei	-11.4293
▁zamroczy	-11.4294
▁błotem	-11.4294
▁pośpiechem	-11.4294
▁szkodę	-11.4294
▁humor	-11.4294
wadze	-11.4294
▁córki	-11.4294
▁obronę	-11.4294
▁przyjdę	-11.4295
▁Tik	-11.4295
tomiast	-11.4295
▁zbroję	-11.4295
▁kościelne	-11.4295
▁potrzebie	-11.4295
▁Słońca	-11.4296
▁bruzd	-11.4296
▁Mog	-11.4296
▁masło	-11.4296
▁śpieszy	-11.4296
▁brzoza	-11.4296
▁poranek	-11.4297
▁krwawa	-11.4297
▁brodę	-11.4297
▁zarówno	-11.4297
▁Wiern	-11.4297
▁spotkania	-11.4298
▁gnieździe	-11.4298
▁odzieży	-11.4298
▁połowy	-11.4298
▁świerków	-11.4299
▁polska	-11.4299
▁dworu	-11.4299
▁rowie	-11.4299
▁varda	-11.4299
▁głębokości	-11.43
▁dziewczynie	-11.43
▁sarny	-11.43
upon	-11.43
▁pozwól	-11.43
▁zorzę	-11.43
▁gąski	-11.4301
▁garści	-11.4301
▁wieczysty	-11.4302
▁potwór	-11.4302
▁uwagę	-11.4302
▁Niedziela	-11.4302
▁trumną	-11.4302
▁pługiem	-11.4303
▁muzyką	-11.4303
▁równin	-11.4304
▁Motyl	-11.4304
▁policzkach	-11.4304
▁gwarzy	-11.4304
▁solą	-11.4304
▁miody	-11.4305
▁czaru	-11.4305
▁diabła	-11.4305
▁dziecięce	-11.4305
▁każdemu	-11.4305
▁walkę	-11.4306
▁księdza	-11.4306
milczeć	-11.4306
▁piaskiem	-11.4306
▁dębu	-11.4307
▁współ	-11.4307
▁scenie	-11.4307
▁wodnych	-11.4308
▁smutkiem	-11.4309
▁zasłony	-11.4309
▁mroczną	-11.431
▁przeklęta	-11.431
▁męski	-11.431
▁borze	-11.431
▁szklanki	-11.4311
▁gęstych	-11.4311
opie	-11.4312
▁tęsknotę	-11.4312
▁zostawić	-11.4312
▁nagości	-11.4313
▁zmarłej	-11.4313
▁ginę	-11.4314
▁chwasty	-11.4314
▁kajdany	-11.4314
▁epoki	-11.4314
▁pociechy	-11.4314
▁starości	-11.4315
▁mody	-11.4315
▁wątek	-11.4315
▁jeży	-11.4315
▁skargę	-11.4315
▁Leć	-11.4316
▁odbicia	-11.4316
▁ułuda	-11.4316
▁miłosnych	-11.4317
▁bogata	-11.4317
▁ukryta	-11.4319
▁sieje	-11.4319
▁skarży	-11.4319
▁knieje	-11.4319
▁miliardy	-11.4319
▁śniło	-11.4319
▁zaklęta	-11.432
rzuciłem	-11.432
▁wzór	-11.432
▁lilia	-11.4321
▁tułacz	-11.4321
▁szalone	-11.4321
▁kreśli	-11.4321
▁dostać	-11.4321
▁korale	-11.4322
▁łukiem	-11.4322
ful	-11.4322
▁źrenicach	-11.4323
▁szaro	-11.4324
▁kolejno	-11.4324
▁znali	-11.4324
▁przerwy	-11.4324
▁St	-11.4324
▁Szaleństwo	-11.4325
▁Lili	-11.4325
▁ilości	-11.4325
▁uniósł	-11.4326
▁amen	-11.4328
▁nudy	-11.4328
▁kieszeniach	-11.4329
▁poniesie	-11.433
▁żądam	-11.433
▁szczeliny	-11.4331
▁przechyla	-11.4331
▁dano	-11.4331
▁twardych	-11.4334
▁ślicznie	-11.4334
▁pomaga	-11.4336
▁nerwy	-11.4336
▁ofiarę	-11.4337
▁zrobię	-11.4337
▁rodzinie	-11.4337
▁stroje	-11.4338
▁mroźny	-11.4338
▁pociągi	-11.434
▁ładne	-11.434
wcześnie	-11.4341
▁dajcie	-11.4341
▁dodaje	-11.4341
▁rozrywa	-11.4341
jąca	-11.4342
amek	-11.4342
▁próżne	-11.4342
▁siną	-11.4342
▁zwoje	-11.4343
▁poleciał	-11.4343
▁karę	-11.4343
▁gestem	-11.4343
▁wdzięczny	-11.4344
▁pamiętać	-11.4344
▁jesiennych	-11.4344
thing	-11.4344
▁tęczą	-11.4345
▁natura	-11.4346
▁końcem	-11.4346
▁porzucić	-11.4347
▁dwojga	-11.4347
▁babcię	-11.4347
▁grzechem	-11.4348
▁dachem	-11.4348
lecieć	-11.4349
▁urasta	-11.4349
▁istoty	-11.4349
▁Brzmi	-11.435
▁zjaw	-11.4351
▁szczury	-11.4351
atskir	-11.4351
▁san	-11.4351
▁inna	-11.4353
▁mieszkanie	-11.4353
▁say	-11.4354
▁dreszczu	-11.4354
▁chłodzie	-11.4355
▁boskiej	-11.4356
▁tajemnicą	-11.4356
▁płaszczu	-11.4356
▁tęczach	-11.4357
▁grzbiety	-11.4357
▁Córka	-11.4357
▁chłodnym	-11.4358
▁kończą	-11.4358
▁stroni	-11.4359
▁rozlał	-11.4359
▁bawią	-11.436
▁nié	-11.436
▁strumieniem	-11.4364
▁szarej	-11.4365
▁powiedziałem	-11.4365
▁szmeru	-11.4366
▁chatą	-11.4367
▁potoku	-11.4367
▁panienka	-11.4367
▁kir	-11.4368
milknie	-11.437
▁zdrowia	-11.437
scy	-11.437
▁zuchwały	-11.4371
▁sprawie	-11.4373
▁sztandary	-11.4373
▁jemu	-11.4373
▁patrzyłem	-11.4375
▁gościu	-11.4377
▁tkwią	-11.4377
▁wież	-11.4377
▁zetrze	-11.438
▁myszy	-11.4381
▁niejeden	-11.4382
▁winie	-11.4383
▁martwej	-11.4384
▁srogo	-11.4384
▁krawędzie	-11.4385
▁zaciśnięt	-11.4386
▁maszyny	-11.4386
▁wspólną	-11.4392
▁zaledwie	-11.4392
led	-11.4392
▁purpurowy	-11.4393
▁liche	-11.4393
▁kamienny	-11.4393
▁nauczy	-11.4394
▁otoczy	-11.4396
▁kluczem	-11.4397
▁spełnia	-11.4397
▁tragiczn	-11.4398
▁sęp	-11.4399
▁rozwarte	-11.4401
▁wypowiada	-11.4401
▁żyłem	-11.4402
▁jadę	-11.4404
▁aniołem	-11.4407
ejdę	-11.4408
▁gesty	-11.4409
▁cieśl	-11.4414
▁złom	-11.4414
▁kocie	-11.4415
▁Niego	-11.4415
▁pijan	-11.4416
▁Żad	-11.4419
▁gust	-11.4419
braknie	-11.442
▁iskra	-11.442
▁złotego	-11.4421
▁mógłbym	-11.4421
▁zwierza	-11.4421
▁cenie	-11.4424
▁lubią	-11.4426
ngus	-11.4426
ciem	-11.4428
▁dzieciom	-11.4429
▁sosnowy	-11.4429
▁hymny	-11.4433
▁siew	-11.4433
▁dymie	-11.4434
▁patrzymy	-11.4435
▁motyli	-11.4436
▁lwa	-11.4437
▁pierze	-11.4437
▁grały	-11.4438
▁pogląd	-11.444
▁łąką	-11.4445
rośnie	-11.4446
▁czystych	-11.4447
noc	-11.4448
▁linia	-11.4448
▁szmery	-11.4448
▁życzy	-11.4448
▁Strzał	-11.4449
eł	-11.4449
N	-11.4453
▁zapachu	-11.4453
▁pozostawion	-11.4454
▁ołtarzy	-11.4455
▁przeklęte	-11.4456
▁czeluści	-11.4457
▁wędrując	-11.4458
▁Człek	-11.4458
▁upojeń	-11.4459
▁najwięcej	-11.4459
▁świadomość	-11.4459
▁Brat	-11.4459
▁słonecznym	-11.446
▁noże	-11.446
▁ogromna	-11.4461
▁Lepiej	-11.4461
▁społem	-11.4462
▁historię	-11.4462
▁gwiezdne	-11.4463
▁smug	-11.4463
▁psów	-11.4463
owiec	-11.4463
▁leżeć	-11.4465
▁pomyśleć	-11.4467
owanej	-11.4468
▁żelazo	-11.4469
▁Ojczyzny	-11.447
dało	-11.447
▁próbuje	-11.4471
▁słuchaj	-11.4471
▁wąs	-11.4472
▁pe	-11.4472
▁złożyć	-11.4473
▁zaczęło	-11.4474
▁kruszy	-11.4474
▁zadumie	-11.4475
▁dud	-11.4476
▁czarnymi	-11.4477
▁znaku	-11.4478
▁poranki	-11.4479
▁poznaję	-11.4481
▁otwarta	-11.4482
▁pytaj	-11.4482
▁Sens	-11.4484
▁fabryka	-11.4486
▁Kład	-11.4486
▁ciepłem	-11.4487
▁słowiki	-11.4489
pen	-11.4489
▁Ciche	-11.4489
▁myszka	-11.449
▁miary	-11.449
▁przyjdź	-11.449
▁mil	-11.4491
▁żyła	-11.4491
▁śmiesznie	-11.4491
▁powstanie	-11.4492
▁świeca	-11.4492
▁Nocą	-11.4492
▁Kr	-11.4495
orzą	-11.4497
▁dary	-11.4497
▁wydęt	-11.4503
bitą	-11.4505
▁myślach	-11.4506
▁Witaj	-11.4507
▁zabiera	-11.4509
py	-11.4515
▁porę	-11.4517
▁kiedyż	-11.4518
▁ciasne	-11.4519
▁elektryczn	-11.452
du	-11.452
▁całego	-11.4526
▁starc	-11.4528
lony	-11.4529
▁sok	-11.4532
▁grające	-11.4532
▁ścięte	-11.4533
▁garną	-11.4533
▁wilgotn	-11.4534
▁wiosenn	-11.4534
▁liliowe	-11.4535
▁opon	-11.4535
▁pleśni	-11.4536
▁niemożliwe	-11.4537
▁dziur	-11.4539
ałeś	-11.4541
▁słuchasz	-11.4542
▁znużone	-11.4546
▁nor	-11.4547
▁spojrz	-11.4552
▁jałowe	-11.4555
▁Prawie	-11.4557
▁czekamy	-11.4559
▁stracone	-11.4563
▁puści	-11.457
lał	-11.4575
▁anielski	-11.4575
▁wierzch	-11.4575
biały	-11.4579
▁wyspa	-11.4579
▁Trwa	-11.4582
▁wschodni	-11.4584
▁tło	-11.4592
▁zaświeci	-11.4594
▁ustroni	-11.4596
▁dolin	-11.4598
▁Syna	-11.4604
▁kazał	-11.4606
▁wrócę	-11.4609
aną	-11.461
▁wciska	-11.461
▁Was	-11.4612
▁spłynęł	-11.4612
dzikich	-11.4612
▁wstydzi	-11.4613
се	-11.4617
▁skrzyp	-11.4617
▁drzewom	-11.4621
pła	-11.4621
▁niepotrzebne	-11.4623
▁zwrot	-11.4624
nosząc	-11.4629
▁płatk	-11.4633
▁dane	-11.4637
▁Słonecz	-11.4638
▁plączą	-11.4638
prowadzić	-11.4639
jedzie	-11.4642
▁leżysz	-11.4643
▁pomysł	-11.4644
▁Panem	-11.4644
▁Czarny	-11.4645
biją	-11.4647
▁piany	-11.4648
▁wesołe	-11.4649
▁rybk	-11.4651
▁Maj	-11.4651
▁nikłe	-11.4651
▁szlocha	-11.4652
▁mięśnie	-11.4653
▁strojne	-11.4654
▁ślepy	-11.4664
viva	-11.4665
▁włóż	-11.4666
▁sile	-11.4678
czyń	-11.4678
▁rozkłada	-11.468
▁по	-11.4685
▁Het	-11.4686
▁Idąc	-11.4688
▁prosta	-11.4689
koło	-11.4691
staje	-11.4694
▁zbrojny	-11.4694
▁Przyszedł	-11.4694
▁Gór	-11.4702
▁małp	-11.4706
era	-11.4708
▁mysz	-11.4708
▁wyciągnął	-11.4708
tach	-11.4709
nymi	-11.4709
▁lepsza	-11.4713
ft	-11.4713
▁grać	-11.4717
▁przemienia	-11.4717
▁śmiała	-11.4718
▁snuje	-11.4719
▁rumieni	-11.4721
siądzie	-11.4721
▁mknie	-11.4722
▁kobiece	-11.4724
▁sprzeda	-11.4728
znaczyć	-11.4735
▁prysznic	-11.4739
▁Mgł	-11.4739
▁zrozumiał	-11.4743
▁świecące	-11.4744
▁str	-11.475
▁ostrze	-11.475
▁stawie	-11.475
siadłem	-11.4753
own	-11.4756
aniem	-11.4756
bożą	-11.4763
▁patrzaj	-11.4764
piły	-11.4771
▁złamany	-11.4779
▁istota	-11.4779
▁maj	-11.4779
▁chmurny	-11.4784
▁skrzydlate	-11.4785
▁powróci	-11.4786
▁skrzydełka	-11.4788
▁zastąpi	-11.4788
tów	-11.4794
▁pamiętaj	-11.4796
▁snuć	-11.4798
▁Dam	-11.4798
▁równym	-11.4799
▁słowom	-11.4801
▁kwadrat	-11.4803
▁szczery	-11.4806
▁opuści	-11.481
▁doń	-11.481
▁trupi	-11.4812
▁polny	-11.4813
usi	-11.4814
▁różowym	-11.4818
▁brew	-11.4819
▁podłoż	-11.482
▁stolic	-11.4821
wią	-11.4821
▁Przyszła	-11.4824
▁ojczysty	-11.4826
▁Dym	-11.4833
▁zowie	-11.4838
▁klasztor	-11.4838
fore	-11.4839
▁całuje	-11.4839
▁до	-11.484
dziesiąt	-11.4844
▁kuli	-11.4846
▁Inne	-11.4847
▁chmurki	-11.4851
▁śledzi	-11.4854
▁nieruchomy	-11.4856
arte	-11.4859
eli	-11.487
▁czub	-11.4872
źnie	-11.4873
▁bury	-11.4873
▁martwym	-11.4877
▁cielsk	-11.4879
▁śliski	-11.4882
czny	-11.4888
▁rozpada	-11.4889
▁biły	-11.489
▁tracę	-11.4894
▁Wiek	-11.4896
▁łodyg	-11.4897
▁zazna	-11.4898
▁śnić	-11.4902
▁kochała	-11.4904
▁Otwiera	-11.4905
har	-11.4908
Sen	-11.4909
▁dzwoniąc	-11.4913
▁mord	-11.4915
▁mane	-11.4916
▁kwieciste	-11.4917
▁latach	-11.492
▁zadum	-11.4923
▁dmucha	-11.4931
▁Pro	-11.4934
▁bier	-11.4939
Abyś	-11.4941
▁śniąc	-11.4943
▁powinno	-11.4944
▁trwał	-11.4945
nuczek	-11.4946
▁Siedzą	-11.4951
▁nosiła	-11.4954
▁wielokrotn	-11.4955
▁Czary	-11.4957
▁Ostatnie	-11.4962
oner	-11.4962
▁ociera	-11.4963
▁brodzi	-11.4969
rot	-11.498
▁nieruchome	-11.4985
▁Próżn	-11.4986
▁pal	-11.4987
▁owija	-11.4993
▁wiedzieli	-11.4993
▁oddaje	-11.4996
▁stop	-11.4996
▁uszu	-11.4997
▁niezwykłe	-11.4998
▁patrzyła	-11.4999
▁past	-11.5005
▁pewny	-11.5011
▁bicie	-11.5013
▁tr	-11.5015
stęp	-11.5016
▁godzi	-11.5016
czucia	-11.5018
▁gaz	-11.5022
▁śmiać	-11.5027
up	-11.5027
▁Wolny	-11.503
ang	-11.503
▁wys	-11.503
▁ziemskich	-11.5033
niec	-11.5034
▁młyn	-11.5036
▁trzecia	-11.5036
▁stoł	-11.5044
▁gad	-11.5047
anis	-11.5047
▁brama	-11.5048
▁świ	-11.505
▁migota	-11.5052
▁wąski	-11.5052
gania	-11.5056
▁nasyci	-11.5056
▁zagrał	-11.5056
▁ciekawy	-11.5057
▁cierpią	-11.5058
▁Mary	-11.5059
▁dawnym	-11.5067
▁popiele	-11.5071
▁głuchym	-11.5071
▁wybrał	-11.5074
▁drobnym	-11.5076
▁najmniej	-11.5079
zwyczaj	-11.5086
▁zagon	-11.5088
▁młodzież	-11.5092
ду	-11.5092
▁nerw	-11.5094
ybe	-11.5095
▁see	-11.5099
▁bębn	-11.5101
▁żelazn	-11.5104
▁Obcy	-11.5109
▁strzeli	-11.511
▁hołd	-11.5113
▁Dotyka	-11.5115
▁zrzuca	-11.5118
▁zbrodnia	-11.512
▁krzyczał	-11.5121
▁fur	-11.5124
▁twoi	-11.5126
▁względ	-11.5134
▁przyjm	-11.5135
▁spalone	-11.5138
▁różny	-11.5138
▁mogilny	-11.5139
▁bierz	-11.5143
▁Szczęśliw	-11.5154
▁zastyga	-11.5158
▁wyzwoli	-11.516
▁zatrzymał	-11.5162
▁wybacz	-11.5163
▁niebieskim	-11.5164
▁stalowe	-11.5164
▁towarzyszy	-11.5166
▁góra	-11.517
▁zlewa	-11.5173
Pójdź	-11.5175
▁portret	-11.518
▁słabym	-11.5184
▁kładł	-11.5184
cisnąć	-11.5184
▁Kas	-11.5187
▁leżące	-11.5187
▁tęsknot	-11.5188
▁Płacz	-11.5191
▁prawd	-11.5191
▁Ś	-11.5196
▁sierot	-11.52
▁ap	-11.52
▁opró	-11.5202
▁Wraca	-11.5204
tre	-11.5205
ńskiej	-11.5206
▁miga	-11.5211
▁warte	-11.5213
▁garstk	-11.5216
▁mrą	-11.5216
▁Przyszło	-11.5217
▁cisz	-11.5217
▁słońc	-11.5218
czyli	-11.5221
▁Chodzi	-11.5222
▁rozmow	-11.5222
ponad	-11.5223
▁komet	-11.5227
▁pieśnie	-11.5228
▁toną	-11.5228
▁śpiewali	-11.523
▁wyrzec	-11.524
nosi	-11.5246
▁liścia	-11.5246
▁Dziewczę	-11.5249
▁plusk	-11.525
▁ciasny	-11.5252
▁złą	-11.5253
▁kara	-11.5259
iki	-11.526
płyniemy	-11.526
▁wartości	-11.526
▁lutnia	-11.5263
▁różow	-11.5264
▁przeżył	-11.5264
▁blad	-11.5264
▁kruk	-11.5265
avo	-11.5266
▁wstrząsa	-11.527
▁typ	-11.527
▁Przeczucie	-11.527
▁ech	-11.5272
owały	-11.5273
▁opuścił	-11.5275
stań	-11.528
wiązane	-11.5281
▁Ra	-11.5282
▁pewność	-11.5283
▁kielicha	-11.5286
▁pąk	-11.5288
▁rwą	-11.5288
▁zawodz	-11.5289
▁kuźni	-11.529
▁posłucha	-11.5297
iejsze	-11.5297
▁zgniły	-11.5298
▁roni	-11.5301
▁Wiar	-11.5301
▁wulkan	-11.5304
staniesz	-11.5304
▁pnia	-11.5305
▁kasztan	-11.5306
▁słone	-11.5308
▁sklepie	-11.5308
▁złodziej	-11.5309
▁podgląda	-11.5312
▁najwyższ	-11.5313
tedy	-11.5313
▁złoci	-11.5314
▁szeleszczą	-11.5316
▁wiją	-11.5317
▁Nam	-11.5317
▁skończył	-11.5318
gul	-11.5322
▁warsztat	-11.5323
▁jeździ	-11.5325
▁miłosny	-11.5325
▁paznokci	-11.5327
▁wapn	-11.5327
▁wręcz	-11.5328
▁niszcząc	-11.5338
▁przemoc	-11.5338
▁kadzielnic	-11.5341
▁Stwórc	-11.5343
▁ziele	-11.5346
▁metafor	-11.5346
▁księdze	-11.5353
▁instrument	-11.5353
▁ucz	-11.5354
▁fragment	-11.5354
▁zamilkł	-11.5358
▁biodra	-11.5359
▁pościel	-11.5361
▁Krwaw	-11.5362
▁ruszył	-11.5362
żą	-11.5363
▁zgraj	-11.5363
▁czwarty	-11.5364
▁Pełno	-11.5365
▁dobro	-11.5367
▁Kochaj	-11.5368
▁wabi	-11.5369
▁hard	-11.5369
▁gotycki	-11.537
▁Jakiż	-11.5371
▁zazdrości	-11.5372
▁basen	-11.5372
▁Br	-11.5373
▁jedwab	-11.5375
▁atrament	-11.5375
▁funkcj	-11.5376
▁kółka	-11.5377
▁sch	-11.5378
▁tęczowe	-11.5379
com	-11.5381
▁zabrał	-11.5382
▁chciałby	-11.5384
▁tęskniąc	-11.5385
▁wystarcza	-11.5385
▁ugor	-11.5386
▁twardo	-11.5388
▁Spraw	-11.5389
NIE	-11.5389
▁męka	-11.5389
▁mnich	-11.539
ness	-11.539
▁miłosne	-11.5391
▁zarys	-11.5394
łu	-11.5394
▁rozpęd	-11.5395
▁różane	-11.5395
▁wejdzie	-11.5398
▁kłamie	-11.5399
▁grudzie	-11.54
▁jazd	-11.54
▁Pokusa	-11.54
▁konduktor	-11.54
ни	-11.54
▁efekt	-11.5401
▁Przywódca	-11.5401
▁Wiśniewski	-11.5401
▁dzieciństwo	-11.5401
▁klęsce	-11.5401
▁maleńka	-11.5401
▁miesięcy	-11.5401
▁niepamięci	-11.5401
▁owszem	-11.5401
▁rusztowania	-11.5401
▁ziarnem	-11.5401
▁zmarszczki	-11.5401
▁ćwierci	-11.5401
▁żałosne	-11.5401
▁żałosny	-11.5401
▁Dosyć	-11.5401
▁miękką	-11.5401
▁pacholę	-11.5401
▁pogodą	-11.5401
▁wróbli	-11.5401
▁zaprawdę	-11.5401
▁srodze	-11.5401
▁Robotnik	-11.5401
▁temperatur	-11.5401
▁Język	-11.5401
▁wełny	-11.5401
▁miodem	-11.5401
▁centrum	-11.5401
▁ćwiczeń	-11.5401
▁drożyn	-11.5401
▁społeczeństwa	-11.5401
▁profesor	-11.5401
▁With	-11.5401
▁oznacza	-11.5401
▁lekką	-11.5402
▁poranka	-11.5402
▁pyle	-11.5402
▁Diabeł	-11.5402
▁przeznaczeń	-11.5402
▁chcieć	-11.5402
▁płowe	-11.5402
▁muzyce	-11.5402
▁obłędzie	-11.5402
▁odgadnie	-11.5402
▁głupot	-11.5402
▁ryczy	-11.5402
▁sól	-11.5402
▁Poetka	-11.5402
▁obiema	-11.5402
▁wszytko	-11.5403
▁związek	-11.5403
▁dwanaście	-11.5403
rozwiązania	-11.5403
▁Jutro	-11.5403
▁samochód	-11.5403
▁rysunku	-11.5403
▁młodu	-11.5403
▁znajdę	-11.5403
▁pamiątki	-11.5403
▁getto	-11.5403
▁poniżej	-11.5403
▁ganek	-11.5403
▁kierunku	-11.5403
▁stwór	-11.5403
▁płocie	-11.5403
▁kredens	-11.5403
▁mūs	-11.5403
▁stokroć	-11.5403
▁zgoła	-11.5404
▁mleku	-11.5404
▁piosnko	-11.5404
▁okrzyki	-11.5404
▁pustką	-11.5404
▁ogrodach	-11.5404
▁skos	-11.5404
▁grabarz	-11.5404
▁Trafi	-11.5404
▁przywita	-11.5404
▁lazurze	-11.5404
środków	-11.5404
▁grozą	-11.5404
▁spoczynek	-11.5404
▁paczk	-11.5404
▁Luli	-11.5405
▁dziewczynka	-11.5405
▁pszczoły	-11.5405
▁sławę	-11.5405
▁gromadą	-11.5406
▁purpury	-11.5406
▁pościg	-11.5406
▁polską	-11.5406
▁brzmienia	-11.5406
▁choroby	-11.5407
▁pożegnanie	-11.5407
▁dłutem	-11.5407
▁błysnął	-11.5407
▁Mruczek	-11.5407
▁grzecznie	-11.5407
▁igraszki	-11.5407
▁demonów	-11.5407
▁harmonii	-11.5407
▁pozdrowiona	-11.5407
▁Krakowa	-11.5408
▁piwnic	-11.5408
▁przechodzę	-11.5408
▁zaczną	-11.5408
▁zaiste	-11.5408
▁zielono	-11.5408
▁piosenką	-11.5408
▁miłą	-11.5408
▁odpowiedni	-11.5408
▁Wiecznie	-11.5409
▁pulsuje	-11.5409
▁labirynt	-11.5409
▁Magda	-11.541
▁Staś	-11.541
▁pustkowie	-11.541
▁szkody	-11.541
▁save	-11.541
▁bitwy	-11.5411
▁każą	-11.5411
▁troje	-11.5411
▁dębowe	-11.5411
▁książeczkę	-11.5411
▁wywija	-11.5412
▁bijące	-11.5412
▁bóstwo	-11.5413
▁spory	-11.5413
▁snać	-11.5413
▁wszechrzeczy	-11.5413
▁faluje	-11.5413
▁pychy	-11.5413
▁rychło	-11.5413
▁dotrzeć	-11.5413
▁cukrem	-11.5414
▁korytarzu	-11.5414
▁konania	-11.5414
▁zabije	-11.5414
▁lwy	-11.5415
▁Mieć	-11.5415
▁wstążki	-11.5415
▁thought	-11.5415
▁posępne	-11.5416
▁boso	-11.5416
▁kolebie	-11.5416
palone	-11.5416
▁chciałeś	-11.5416
▁senność	-11.5416
▁wagonie	-11.5416
▁wonna	-11.5416
▁brakuje	-11.5417
▁nikim	-11.5417
▁tamtego	-11.5417
▁gradem	-11.5418
▁starców	-11.5418
▁potęgę	-11.5418
▁pijane	-11.5419
▁donikąd	-11.542
▁kominie	-11.542
wia	-11.542
▁Wolę	-11.542
▁uważnie	-11.542
▁puszyste	-11.542
▁cudzą	-11.542
▁ołtarzu	-11.5421
▁wszakże	-11.5421
▁Bet	-11.5421
▁igły	-11.5421
▁wierna	-11.5422
▁wsparty	-11.5422
▁wichury	-11.5422
▁wyboru	-11.5423
▁powleka	-11.5424
lor	-11.5424
giął	-11.5424
▁zbroja	-11.5424
▁uczynić	-11.5424
▁promienne	-11.5424
▁urody	-11.5425
▁smyczy	-11.5425
▁ukryć	-11.5425
▁pochylony	-11.5425
▁dziecinnych	-11.5426
▁przyjście	-11.5426
▁Ucz	-11.5426
▁Litwy	-11.5426
▁ławy	-11.5427
▁kroczą	-11.5427
▁obroty	-11.5428
▁wyrosła	-11.5429
▁muzyczn	-11.5429
▁poetą	-11.5429
▁posłanie	-11.5429
▁nauki	-11.5429
▁kotki	-11.543
▁wyskoczy	-11.543
▁papierosy	-11.543
▁drab	-11.543
▁trzysta	-11.5431
▁Męk	-11.5431
▁wąwoz	-11.5431
▁królu	-11.5432
▁Zaczął	-11.5432
piszesz	-11.5432
▁ponura	-11.5432
▁sowy	-11.5433
▁murze	-11.5433
▁tęczę	-11.5434
▁ślina	-11.5434
▁wdziękiem	-11.5434
▁reguły	-11.5434
▁maju	-11.5435
▁piątk	-11.5435
▁krzaku	-11.5435
▁lśniących	-11.5435
▁modrej	-11.5435
▁cudzej	-11.5435
▁ściele	-11.5435
▁ułożyć	-11.5436
▁vien	-11.5436
▁mokra	-11.5436
▁pałacu	-11.5436
▁polskiego	-11.5436
▁niespodzianie	-11.5436
▁pianę	-11.5437
▁złocistych	-11.5437
▁sufitu	-11.5437
▁przeleciał	-11.5438
▁marszu	-11.5439
▁chmurze	-11.5439
▁robiąc	-11.5439
▁tajemnicę	-11.5439
▁mind	-11.544
▁zaświaty	-11.544
▁włosami	-11.544
▁woły	-11.544
▁różanych	-11.544
▁bory	-11.5441
▁komnaty	-11.5441
▁more	-11.5441
▁butelka	-11.5442
▁grzyby	-11.5442
▁lawa	-11.5442
▁powiedzmy	-11.5443
▁nadmiaru	-11.5443
▁ptasich	-11.5443
▁rozumiesz	-11.5443
▁niepokojem	-11.5443
▁młodego	-11.5444
▁skoku	-11.5444
▁zjawi	-11.5444
▁owocu	-11.5444
▁blizn	-11.5445
▁jéj	-11.5446
▁koce	-11.5447
▁oglądam	-11.5447
▁bywało	-11.5448
▁szlaki	-11.5448
▁nędzą	-11.5449
▁łańcuchem	-11.5449
▁kopie	-11.5449
▁Ju	-11.5449
▁rower	-11.5451
▁szeregiem	-11.5451
▁soki	-11.5452
▁zapału	-11.5453
▁Czerwony	-11.5453
▁rozpala	-11.5453
▁dobie	-11.5453
▁zadrżał	-11.5453
▁zwycięży	-11.5453
▁troską	-11.5454
▁gubiąc	-11.5455
▁łuną	-11.5455
▁proces	-11.5456
▁wpływ	-11.5456
▁piesek	-11.5456
ble	-11.5456
▁paniusi	-11.5456
▁kosą	-11.5456
▁zbierać	-11.5457
▁głuchej	-11.5457
▁boisz	-11.5457
▁wyrazem	-11.5457
letniego	-11.5458
▁pokojem	-11.5458
▁Swoje	-11.5459
▁prawej	-11.5459
▁kęp	-11.5459
▁lamenty	-11.5459
▁narodzie	-11.546
▁Cieszy	-11.546
▁wagony	-11.546
▁ptaszki	-11.546
▁lewicow	-11.546
płacił	-11.5461
▁zrodził	-11.5462
▁lewej	-11.5462
▁powierzchnię	-11.5462
▁otworzyć	-11.5462
▁wersj	-11.5463
▁błysku	-11.5464
▁guz	-11.5464
▁brudu	-11.5464
▁szafy	-11.5465
▁tafl	-11.5466
▁powrócić	-11.5466
▁Drogi	-11.5467
▁gniewie	-11.5467
▁siwa	-11.5468
▁suknię	-11.5469
▁zmienił	-11.5469
prawdziwie	-11.5469
▁przyjaciółk	-11.547
▁głodnych	-11.547
▁pociąga	-11.547
▁Czyj	-11.547
▁warstwy	-11.5471
39	-11.5471
▁władzy	-11.5471
▁latarnie	-11.5471
▁obcięt	-11.5472
▁punktu	-11.5473
siek	-11.5473
▁klon	-11.5474
▁pożarem	-11.5474
▁żąda	-11.5475
▁grozie	-11.5476
▁świeżej	-11.5477
▁wódki	-11.5477
▁what	-11.5478
▁Mały	-11.5478
▁przestaje	-11.5479
▁Poszła	-11.5479
▁wyrosły	-11.548
▁wspomnieniem	-11.548
▁gadać	-11.548
▁zaśnie	-11.548
gasły	-11.5482
▁Siedz	-11.5483
▁przeznaczenie	-11.5483
▁kwiatom	-11.5483
▁młodym	-11.5484
▁gromów	-11.5484
▁fotografi	-11.5484
▁koleją	-11.5485
▁Bożym	-11.5486
▁różowych	-11.5487
▁kolego	-11.5487
▁kąty	-11.5489
▁kaskada	-11.5489
▁półki	-11.549
▁żałobny	-11.549
acza	-11.549
rochę	-11.5491
▁powiekach	-11.5491
▁poeto	-11.5491
deń	-11.5491
▁Dawida	-11.5492
▁dopomóż	-11.5492
▁pyłu	-11.5493
▁komina	-11.5493
aty	-11.5495
▁wszelkiej	-11.5496
▁ramy	-11.5496
leje	-11.5497
▁Twej	-11.5497
▁wozy	-11.5498
▁odwrócił	-11.5498
▁korzeni	-11.5499
▁zbrodnie	-11.5501
onego	-11.5501
▁Ból	-11.5501
▁wracał	-11.5501
ńże	-11.5506
▁klucze	-11.5509
▁pręży	-11.551
▁Twą	-11.5511
▁mości	-11.5511
▁różany	-11.5511
▁lądy	-11.5512
▁otoczon	-11.5512
▁przepada	-11.5513
▁napina	-11.5515
▁prawem	-11.5516
▁rytmu	-11.5517
pisałem	-11.5517
▁szumach	-11.5518
▁stawy	-11.5518
▁oddechów	-11.5519
▁krzyknął	-11.5521
▁losów	-11.5521
▁fig	-11.5522
▁rur	-11.5522
lub	-11.5523
▁słaba	-11.5523
▁wstrząs	-11.5523
▁ciężkiej	-11.5525
▁tył	-11.5526
▁wyrazy	-11.5527
▁oceany	-11.5527
▁sinych	-11.5527
▁papiery	-11.5527
▁dziada	-11.5527
ryku	-11.5528
kazuje	-11.5529
▁pełza	-11.5529
▁niewieści	-11.553
▁Dziady	-11.553
▁cytryn	-11.5531
▁bokiem	-11.5531
▁osobno	-11.5532
▁mistyczny	-11.5532
▁Ciał	-11.5532
▁gród	-11.5533
▁pięknej	-11.5533
▁nadzy	-11.5534
”)	-11.5536
▁mówiłem	-11.5538
▁sensie	-11.5539
▁niedźwiedzi	-11.5542
▁człowieczej	-11.5542
▁boją	-11.5544
▁śpiewie	-11.5545
▁wstać	-11.5546
▁dojrzałe	-11.5547
▁napisy	-11.5547
▁model	-11.5547
▁nędz	-11.5551
▁krótkim	-11.5553
▁władza	-11.5554
▁gwiazdek	-11.5555
kować	-11.5555
▁gwałtown	-11.5556
▁byliśmy	-11.5556
▁bliźni	-11.5557
▁proszą	-11.5559
▁Mówią	-11.5559
▁wiodąc	-11.5562
suwa	-11.5563
▁surow	-11.5564
iła	-11.5566
▁pije	-11.5567
▁parując	-11.5568
kraść	-11.557
▁słoneczna	-11.5571
▁przyzna	-11.5572
▁noga	-11.5573
▁szemrze	-11.5574
▁sprzedawa	-11.5576
▁pokus	-11.5577
▁fakty	-11.5579
▁wczorajsze	-11.5579
▁sytuacja	-11.5579
▁szmat	-11.5581
pewnym	-11.5582
▁królem	-11.5583
▁tren	-11.5583
▁puchy	-11.5583
▁jeleń	-11.5584
▁klin	-11.5587
▁chwilow	-11.5587
▁wkłada	-11.5588
▁rzeczywiście	-11.559
▁lekka	-11.559
▁h	-11.559
▁Widać	-11.5591
▁wydziera	-11.5592
▁Święty	-11.5592
▁Gniew	-11.5592
▁szepcą	-11.5594
▁trwoni	-11.5594
▁Zrób	-11.5595
▁liściu	-11.5595
▁Rozum	-11.5595
erra	-11.5596
▁bydło	-11.5596
▁Kochać	-11.5598
▁Słodka	-11.5599
▁ostatnio	-11.56
▁relacj	-11.56
▁brody	-11.5601
▁królestwo	-11.5602
▁wschodu	-11.5604
▁schowane	-11.5605
▁Żyć	-11.5606
▁turi	-11.5606
▁wiekuisty	-11.5607
uoja	-11.5608
▁wyższe	-11.5611
▁Gdyż	-11.5611
▁Pewnie	-11.5613
▁Kogo	-11.5613
▁braki	-11.5614
▁strzaskane	-11.5614
▁spokojn	-11.5614
▁Pragnie	-11.5615
▁podnieść	-11.5615
▁dając	-11.5616
▁przejrzysty	-11.5618
▁szarą	-11.5621
▁struna	-11.5624
▁mili	-11.5628
▁pachnący	-11.5628
▁drżąca	-11.5629
▁trwania	-11.5629
▁Znasz	-11.563
der	-11.5633
▁przechodnia	-11.5639
▁Tur	-11.5639
▁piekielny	-11.564
▁łącząc	-11.5641
▁strunach	-11.5641
▁nieśmiałe	-11.5642
Idź	-11.5644
▁dziadu	-11.5645
▁głowach	-11.5646
▁płaci	-11.5646
▁zapal	-11.5649
▁szczególn	-11.5649
▁tocząc	-11.565
budź	-11.5652
▁zajrzał	-11.5653
▁gładko	-11.5653
▁zapas	-11.5655
▁zawołał	-11.5655
lum	-11.5656
▁czułości	-11.5657
▁di	-11.5658
▁Roze	-11.5658
Czas	-11.566
▁łudzi	-11.566
całować	-11.5661
▁krwawo	-11.5662
Noc	-11.5662
▁rozrzucone	-11.5663
Choć	-11.5665
▁plecak	-11.5666
▁językach	-11.5667
▁uderzenia	-11.5668
▁Tysiąc	-11.567
Bez	-11.5671
ais	-11.5672
▁budynk	-11.5675
▁ptaku	-11.5675
▁stracony	-11.5676
Dzisiaj	-11.568
▁zwycięża	-11.5681
▁zapomnij	-11.5684
▁dały	-11.5684
▁znając	-11.5685
▁Byś	-11.5686
czuć	-11.5687
Wiosna	-11.5688
▁kosmiczny	-11.5691
▁niewiadom	-11.5695
▁najmniejsze	-11.57
▁Biała	-11.5701
Świat	-11.5703
czę	-11.5705
▁Błyszcz	-11.5706
▁Uderza	-11.571
▁motyla	-11.5711
▁dogasa	-11.5715
▁węsząc	-11.5716
▁przedmiot	-11.5717
▁płakała	-11.5722
lepił	-11.5724
zielony	-11.5726
▁gazet	-11.5727
▁lękam	-11.5729
▁rozpięte	-11.573
ver	-11.5731
▁Plac	-11.5731
▁wystawia	-11.5732
▁Kali	-11.5732
▁zamknę	-11.5734
▁babka	-11.5736
▁tajne	-11.5739
▁szukaj	-11.5742
▁pochodni	-11.5743
▁loty	-11.5744
daleko	-11.575
▁kruch	-11.5751
▁najlepszy	-11.5752
▁występ	-11.5752
▁zmartwychwstał	-11.5756
▁wywołuj	-11.5761
nieśli	-11.5762
▁tonów	-11.5765
▁mętne	-11.5765
▁trafił	-11.5766
lecą	-11.5768
zmu	-11.5769
▁spadły	-11.577
▁pracuje	-11.5773
▁chude	-11.5781
▁chmurę	-11.5781
▁długiej	-11.5781
▁księżycem	-11.5782
▁począł	-11.5783
▁zdradził	-11.5783
▁sfer	-11.5784
▁jos	-11.5787
▁Twa	-11.5788
▁szorstki	-11.5788
▁granica	-11.5789
▁kła	-11.5795
▁Zaś	-11.5799
▁bluszcz	-11.5801
onie	-11.5805
▁żyjesz	-11.5805
▁połyska	-11.5807
▁przyciska	-11.5807
▁nerwowo	-11.581
stępuje	-11.5816
▁dang	-11.5816
▁człowieczy	-11.5816
▁Patrzył	-11.582
ним	-11.5821
▁chudy	-11.5822
▁próbował	-11.5825
atte	-11.5828
▁kal	-11.5829
▁rzadki	-11.5833
▁śmieszny	-11.5834
śle	-11.5838
▁żarty	-11.5838
jesz	-11.5839
▁majowy	-11.5841
▁jedz	-11.5841
▁pytał	-11.5841
▁poczucie	-11.5851
▁Wiel	-11.5854
mimo	-11.5856
▁niezwykł	-11.5857
tarł	-11.5857
▁umarłe	-11.586
▁bezsilny	-11.586
▁Słuchaj	-11.5865
▁dmie	-11.5865
▁rajem	-11.5865
▁urwiska	-11.5865
▁uliczny	-11.5866
ącego	-11.5868
Może	-11.5872
▁figur	-11.5873
▁podziwia	-11.5878
▁kras	-11.588
▁wiadomość	-11.5885
▁zdrowe	-11.5885
▁głębią	-11.5887
arpe	-11.5888
KO	-11.589
▁zgaśnie	-11.5891
▁świecąc	-11.5892
▁ciąg	-11.5898
▁gęś	-11.59
ner	-11.5901
▁złym	-11.5903
▁późny	-11.5907
ap	-11.5911
▁trzęsie	-11.5915
▁grona	-11.5915
▁Szept	-11.5917
▁wypadł	-11.5917
▁krów	-11.5918
▁milczę	-11.5919
mknął	-11.5921
oni	-11.5922
▁Siadł	-11.5924
”/	-11.5929
▁dzielny	-11.5929
owaną	-11.5932
▁zgięty	-11.5934
▁nucą	-11.5936
▁króla	-11.5936
▁wieka	-11.5939
▁wykonan	-11.5942
puszcza	-11.5943
biorą	-11.5946
▁Ślub	-11.5947
▁Inn	-11.5948
▁całem	-11.5948
▁zmiana	-11.5949
szych	-11.5951
▁Słodkie	-11.5952
▁Pij	-11.5952
▁Mądrość	-11.5953
▁glob	-11.5954
eta	-11.5958
▁synowi	-11.596
▁błoni	-11.5963
▁powszechn	-11.5972
mej	-11.5973
▁kwitnąc	-11.5975
parł	-11.5975
▁sztuczne	-11.5975
▁ustaje	-11.5978
▁stworzone	-11.5979
bity	-11.5986
dus	-11.5986
▁Wasze	-11.5986
▁kruchy	-11.5989
▁plama	-11.5994
▁Jasne	-11.5996
▁mat	-11.6
”...	-11.6006
▁Je	-11.6007
▁lodów	-11.601
▁dochodzi	-11.6011
▁Lekarz	-11.6014
biło	-11.6016
▁powracając	-11.6017
▁przybył	-11.6023
▁wierne	-11.6024
▁błękitnym	-11.6026
▁żart	-11.6027
▁dział	-11.6027
▁gorącym	-11.603
rosły	-11.603
▁pozostało	-11.603
hu	-11.6031
▁wiotkie	-11.6033
▁Szła	-11.604
▁dziob	-11.6042
▁Pierwsze	-11.6044
▁przemieni	-11.6044
▁fe	-11.605
▁chwali	-11.6051
▁Często	-11.6052
▁gromu	-11.6053
▁mieszkać	-11.6054
▁piosn	-11.6054
smak	-11.6055
dło	-11.6055
łomień	-11.6057
▁wołać	-11.6057
▁biegł	-11.6058
ędź	-11.6058
▁Dawne	-11.6066
uk	-11.607
arty	-11.6072
siedli	-11.6075
uchy	-11.6077
▁pion	-11.6077
▁posępn	-11.6081
▁lipa	-11.6084
▁dwaj	-11.6084
▁Musiał	-11.6085
eg	-11.6089
▁cierpliw	-11.6091
▁chust	-11.6095
bili	-11.6096
▁gmin	-11.6099
karmić	-11.61
▁warta	-11.6106
▁przypominam	-11.6109
▁cmentarze	-11.611
▁Di	-11.6111
▁metal	-11.6115
ger	-11.6117
yt	-11.6117
▁czem	-11.612
▁stań	-11.6121
chcący	-11.6122
▁Jedne	-11.6123
▁Mieszka	-11.6124
▁goście	-11.6124
▁starusz	-11.6132
▁przeze	-11.6134
anki	-11.6134
▁szczer	-11.6135
▁świerszcz	-11.6136
vo	-11.6136
▁padał	-11.6144
▁com	-11.6147
▁odchodzą	-11.6148
ов	-11.6148
▁mdleją	-11.6151
▁Hu	-11.6154
▁bierzesz	-11.6154
▁niosła	-11.6156
▁ruskie	-11.6158
▁błogosławi	-11.6161
▁Go	-11.6168
▁Toć	-11.6171
▁mięśni	-11.6191
▁leśny	-11.6192
lot	-11.6196
▁obją	-11.6197
mienić	-11.6198
▁kan	-11.6198
▁tygodni	-11.6199
▁Dawid	-11.62
▁zasług	-11.6203
▁Jau	-11.6204
iéj	-11.6216
▁Ino	-11.6222
▁thi	-11.6224
▁możliwość	-11.6228
▁rozdziera	-11.6228
▁buta	-11.6232
liczny	-11.6234
▁ognisko	-11.6235
rom	-11.6235
▁odmienia	-11.6237
▁sinym	-11.6238
▁zjada	-11.6241
▁krzycząc	-11.6242
ślij	-11.6244
▁Dobre	-11.6245
▁upływa	-11.6246
▁Car	-11.625
▁sztywn	-11.6253
▁powita	-11.6257
▁fotel	-11.6259
każ	-11.6262
▁dany	-11.6263
▁spiż	-11.627
▁odmieni	-11.6274
▁gro	-11.6277
głą	-11.6278
▁parasola	-11.6279
▁rozbite	-11.6281
▁wiesza	-11.6282
▁did	-11.6282
▁potrwa	-11.6283
bol	-11.6293
▁drogach	-11.6295
▁Podobn	-11.6299
▁strup	-11.6299
▁mruga	-11.6302
▁łowi	-11.6302
sia	-11.6302
▁ciszej	-11.6303
▁łamią	-11.6305
▁wzbija	-11.6306
▁świta	-11.6319
nąłem	-11.6321
▁zera	-11.6323
nes	-11.6325
prowadził	-11.6326
brat	-11.6329
▁Śpiewam	-11.6334
dałby	-11.6343
▁wylewa	-11.6344
▁lotne	-11.6345
▁zdrowi	-11.6348
▁waha	-11.6349
iły	-11.6349
▁zmarł	-11.6349
▁odwrócony	-11.6351
▁łańcucha	-11.6354
▁fruwa	-11.6356
▁przypomni	-11.6361
ałbym	-11.6361
▁haft	-11.6367
▁marząc	-11.6367
▁wers	-11.6379
▁sau	-11.6381
sus	-11.6382
stawić	-11.6382
▁cukier	-11.6386
▁resztk	-11.6386
▁dumał	-11.6387
▁uderzenie	-11.639
▁łaskaw	-11.6393
▁lepkie	-11.6397
ratuje	-11.641
wali	-11.6411
▁kiwa	-11.6413
rzuć	-11.6415
płynąć	-11.6415
▁świadk	-11.6418
▁bieda	-11.6425
res	-11.6426
▁pachnącym	-11.6428
▁zgubn	-11.6429
▁Żadne	-11.6432
▁Chwyta	-11.6434
▁Pomyśl	-11.6436
▁kałuż	-11.6438
be	-11.644
▁marny	-11.6444
▁poczyna	-11.6446
▁płota	-11.6446
lone	-11.6447
▁szczelin	-11.6447
anek	-11.6448
▁al	-11.6449
ėl	-11.6456
▁paszcz	-11.646
▁dusząc	-11.6462
▁piekieln	-11.6474
▁Tęskno	-11.6477
son	-11.6478
▁zapalił	-11.6479
▁palm	-11.6484
▁pij	-11.6484
▁nabrzmiewa	-11.6486
▁zaklina	-11.649
▁niszczy	-11.6491
▁zwycięstw	-11.6497
▁Jaś	-11.6498
▁sztuk	-11.65
▁kaskad	-11.6502
ców	-11.6505
▁walczą	-11.6505
jusz	-11.6511
▁dzielić	-11.6511
dem	-11.6513
▁Tysiące	-11.6513
▁epok	-11.6518
▁drwa	-11.6519
▁przeszkadza	-11.652
▁szabl	-11.6523
▁zmruż	-11.6524
▁zastygł	-11.6525
puszki	-11.6525
▁jedne	-11.6525
▁doktora	-11.6525
ęta	-11.6529
▁jaśniej	-11.6529
▁przystani	-11.653
lność	-11.6534
▁pobożn	-11.6535
▁pług	-11.6535
▁zaludni	-11.654
▁sygnał	-11.6541
▁niewolnik	-11.6543
▁ślimak	-11.6546
▁osobist	-11.6553
▁barwi	-11.6554
ady	-11.6555
poczęła	-11.6558
tyczne	-11.656
▁bratni	-11.6562
▁śpiewak	-11.6562
▁firmament	-11.6563
▁wytrzyma	-11.6568
▁tętent	-11.6568
▁jedli	-11.6568
less	-11.6569
▁smutnym	-11.657
lni	-11.6571
▁okrzyk	-11.6571
▁fałszyw	-11.6572
▁płaz	-11.6572
▁dobiega	-11.6575
▁tarp	-11.6576
wać	-11.6576
▁rozkoszne	-11.6578
▁trza	-11.6579
▁wielbi	-11.6581
▁łon	-11.6581
▁obrus	-11.6584
▁alkohol	-11.6585
▁Ust	-11.6585
▁kłania	-11.6588
▁trzymał	-11.6588
▁wstęp	-11.659
▁rzadk	-11.6591
▁Pójdzie	-11.6592
▁mozoln	-11.6593
▁konanie	-11.6594
▁Swoj	-11.6594
▁chałup	-11.6596
▁śnieżny	-11.6597
turn	-11.6598
świadczy	-11.6598
▁cyfr	-11.66
czujesz	-11.66
row	-11.6601
▁nadmiern	-11.6602
▁tańce	-11.6606
▁następne	-11.6606
▁łkanie	-11.6608
▁topieli	-11.6609
▁Umiera	-11.6609
▁zmierza	-11.661
▁wierni	-11.6611
▁wczora	-11.6611
▁ever	-11.6611
▁panicz	-11.6611
▁ubranie	-11.6612
▁służb	-11.6613
▁czap	-11.6613
▁nieznajom	-11.6614
▁gre	-11.6616
ier	-11.6617
▁broda	-11.6617
▁umrze	-11.6618
▁kusi	-11.6618
mierzyć	-11.6619
▁lusterka	-11.662
▁przejścia	-11.6621
▁towarzystw	-11.6622
▁Długi	-11.6622
▁kaprys	-11.6623
▁narzędzie	-11.6627
▁powinien	-11.6627
▁skowronki	-11.6629
▁cierni	-11.6629
noszą	-11.663
▁przytula	-11.663
▁czwarte	-11.663
▁Bieg	-11.6633
▁wyraźnie	-11.6634
▁margines	-11.6634
▁wyjści	-11.6634
▁kawiarni	-11.6635
▁dotknie	-11.6635
▁Chcą	-11.6635
▁skacząc	-11.6635
▁kamienic	-11.6635
▁nieszczęście	-11.6636
▁powstaje	-11.6637
▁przyjmuje	-11.6637
▁magi	-11.6637
▁złocą	-11.6638
▁istn	-11.6638
▁zuch	-11.6638
wikła	-11.6639
▁Teres	-11.6639
▁rozmawia	-11.664
▁smutki	-11.6642
▁mistern	-11.6643
▁ćwiczy	-11.6644
ój	-11.6645
try	-11.6646
▁nabiera	-11.6646
żdżone	-11.6647
▁poprzedni	-11.6647
▁mgliste	-11.6649
▁Tomasz	-11.6651
▁Centaur	-11.6651
▁instynkt	-11.6651
▁szczebiot	-11.6651
▁Bezpieczeństwo	-11.6651
▁Kerywel	-11.6651
▁Proroctwo	-11.6651
▁Wędruj	-11.6651
▁chyłkiem	-11.6651
▁cmentarny	-11.6651
▁gruncie	-11.6651
▁konstrukcja	-11.6651
▁konstrukcji	-11.6651
▁krzywe	-11.6651
▁najważniejsz	-11.6651
▁największe	-11.6651
▁niepamięć	-11.6651
▁nieskończenie	-11.6651
▁pieszczocie	-11.6651
▁pożółkłych	-11.6651
▁rzewnie	-11.6651
▁struktur	-11.6651
▁ukrył	-11.6651
▁zaledwo	-11.6651
▁zostają	-11.6651
Czarodziej	-11.6651
▁bioder	-11.6651
▁pośpiesznie	-11.6651
▁ratunek	-11.6651
▁rtęć	-11.6651
▁sekrecie	-11.6651
▁Przeciw	-11.6651
▁pokorą	-11.6651
▁wszelką	-11.6651
▁niepojęty	-11.6651
▁ogół	-11.6651
▁rozstaju	-11.6651
▁srebro	-11.6651
▁wzlata	-11.6651
▁Drzwi	-11.6651
▁Jeruzalem	-11.6651
▁sprawdzić	-11.6651
▁wioskę	-11.6651
▁Jūra	-11.6651
▁sierści	-11.6651
▁zmiłuj	-11.6651
▁Prorok	-11.6651
▁zacznę	-11.6651
▁Mańcia	-11.6651
▁korzyści	-11.6651
▁najwyżej	-11.6651
▁okoliczności	-11.6651
▁beztrosk	-11.6651
▁nagrodę	-11.6651
▁krawiec	-11.6651
▁roztrąca	-11.6651
▁tajemną	-11.6651
▁niedzieli	-11.6651
▁ochota	-11.6651
▁sześćdziesiąt	-11.6651
▁gęsto	-11.6651
▁pojutrze	-11.6651
▁rączką	-11.6651
▁draug	-11.6651
▁cyprysy	-11.6651
▁Korzyść	-11.6651
▁piosence	-11.6651
▁przyczepkę	-11.6651
▁niedolę	-11.6651
▁płaszczyzn	-11.6651
▁duża	-11.6651
▁Dangus	-11.6651
▁trocin	-11.6651
▁wybrzeży	-11.6651
▁Eden	-11.6652
▁witryn	-11.6652
▁cześci	-11.6652
▁stwarza	-11.6652
▁Homer	-11.6652
▁wyznacza	-11.6652
▁biegnij	-11.6652
▁radiu	-11.6652
▁rund	-11.6652
▁pięter	-11.6652
▁wytchnienia	-11.6652
▁rozprasza	-11.6652
giąć	-11.6652
▁Wygnanie	-11.6652
▁wieńczy	-11.6652
▁dłuży	-11.6652
▁konieczność	-11.6652
▁źdźbło	-11.6652
▁czapkę	-11.6652
▁westchnień	-11.6652
▁rdzy	-11.6652
▁parkan	-11.6652
▁miażdżąc	-11.6652
▁diabeł	-11.6652
▁pomieszczeni	-11.6653
▁przetacza	-11.6653
▁słodzi	-11.6653
▁ogromną	-11.6653
▁szpitala	-11.6653
▁Wieczność	-11.6653
▁suchą	-11.6653
▁stygnie	-11.6653
▁Kupido	-11.6653
▁krocie	-11.6653
▁ożywia	-11.6653
▁Wrzask	-11.6653
▁wstała	-11.6653
▁wystrzał	-11.6653
▁wieczorze	-11.6653
▁pokojach	-11.6653
▁cegieł	-11.6653
▁Vilij	-11.6653
▁telewizji	-11.6653
▁badyl	-11.6653
▁Ocean	-11.6653
▁lusterko	-11.6654
▁firanek	-11.6654
▁słysząc	-11.6654
▁tajemnicza	-11.6654
▁wygrywa	-11.6654
▁jūsų	-11.6654
▁Pachnie	-11.6654
▁kurwa	-11.6654
▁gotowe	-11.6654
▁wyobraża	-11.6654
▁cichsze	-11.6654
▁rozpoznaję	-11.6655
▁pisma	-11.6655
▁wyszli	-11.6655
▁wspaniale	-11.6655
▁nieprzytomnie	-11.6655
▁mojéj	-11.6655
▁śniada	-11.6655
▁znajdą	-11.6655
▁wyłoni	-11.6655
▁chrzęst	-11.6655
▁Odwaga	-11.6655
▁stroją	-11.6655
▁głuchnie	-11.6655
▁potrąca	-11.6655
▁rakiet	-11.6656
▁pochody	-11.6656
▁Błoto	-11.6656
▁żałośnie	-11.6656
▁Niewiel	-11.6656
▁grobowca	-11.6656
▁opoki	-11.6656
▁niebieską	-11.6656
▁wróżki	-11.6656
▁wielce	-11.6656
▁przypadku	-11.6656
▁Kupcie	-11.6656
▁melodię	-11.6656
▁każę	-11.6657
Widziałam	-11.6657
▁zakwitnie	-11.6657
▁zdrady	-11.6657
▁hotelu	-11.6657
▁kółko	-11.6657
▁widziadła	-11.6658
▁kłębek	-11.6658
▁mówiono	-11.6658
▁pomnę	-11.6658
▁lody	-11.6658
▁melodii	-11.6658
▁zajęty	-11.6658
▁chciwie	-11.6658
▁pozór	-11.6658
▁nieśmiertelność	-11.6658
▁smutków	-11.6658
▁niecnota	-11.6658
▁królewna	-11.6659
▁Bożą	-11.6659
▁zapewne	-11.6659
▁łkania	-11.6659
▁powiedziane	-11.6659
▁zapłacze	-11.6659
▁przeczuć	-11.6659
▁pytań	-11.6659
▁Kształt	-11.6659
▁niepokoju	-11.6659
wagę	-11.6659
▁odpocząć	-11.666
▁darni	-11.666
▁podobieństwo	-11.666
▁Prosto	-11.666
▁wznieść	-11.6661
▁plażę	-11.6661
▁ruchome	-11.6661
▁Staje	-11.6661
▁sprawić	-11.6662
▁korowody	-11.6662
bierzesz	-11.6662
▁świąt	-11.6662
▁tęskne	-11.6662
▁obł	-11.6662
▁tarczą	-11.6662
▁bezwładnie	-11.6663
▁Wola	-11.6663
▁skazy	-11.6663
▁agonii	-11.6663
rę	-11.6663
▁Zresztą	-11.6663
▁rykiem	-11.6663
▁zegara	-11.6663
▁strzechę	-11.6663
▁smucić	-11.6664
▁tłumiąc	-11.6664
▁wzlot	-11.6664
▁melancholii	-11.6665
▁karuzeli	-11.6666
▁stylu	-11.6666
▁łaskawie	-11.6666
▁zachować	-11.6666
▁drobna	-11.6666
▁pociechę	-11.6666
▁kołyską	-11.6666
▁podziw	-11.6666
▁Widziało	-11.6667
▁zaświatów	-11.6667
▁zginąć	-11.6667
▁his	-11.6667
▁zmarłego	-11.6667
▁śliska	-11.6667
▁opadnie	-11.6667
▁poczułam	-11.6667
▁natchniony	-11.6668
▁oczekiwani	-11.6668
▁mapy	-11.6668
▁zmieścić	-11.6668
▁Chcąc	-11.6668
▁romantyczny	-11.6668
▁przenosi	-11.6668
▁nuży	-11.6668
▁rowy	-11.6668
▁boską	-11.6669
▁poznali	-11.667
▁naturą	-11.667
▁liczb	-11.667
▁bród	-11.667
▁szczęśliwe	-11.667
▁Wąż	-11.6671
▁stracić	-11.6671
▁rozmawiać	-11.6671
▁kładę	-11.6671
▁Ciągnie	-11.6671
▁Dumn	-11.6671
▁Krzywda	-11.6671
▁sposobem	-11.6671
▁bicia	-11.6671
▁pokazać	-11.6672
▁ukosem	-11.6672
▁milionów	-11.6672
▁miłym	-11.6672
▁parska	-11.6673
szpera	-11.6673
▁uczą	-11.6673
▁eter	-11.6673
▁spojrzysz	-11.6673
▁koncert	-11.6673
▁umarli	-11.6673
▁grzbietach	-11.6674
▁statu	-11.6674
▁wykwita	-11.6674
▁cholery	-11.6674
▁nakrywa	-11.6674
▁chodniku	-11.6675
▁cudzych	-11.6675
▁skłoni	-11.6675
▁pochyl	-11.6675
▁oprzeć	-11.6675
▁służbę	-11.6675
▁kotlin	-11.6677
▁Kos	-11.6677
▁Młode	-11.6677
▁Psy	-11.6677
▁uczcie	-11.6678
▁zdziwiony	-11.6678
anej	-11.6678
▁żagli	-11.6678
▁fontanny	-11.6679
▁kochali	-11.6679
▁tramwaje	-11.668
▁promienny	-11.668
▁zwyczaj	-11.668
▁pojąć	-11.6681
▁ścieżką	-11.6681
▁serdecznie	-11.6681
▁unieść	-11.6681
▁uciechy	-11.6682
▁igrać	-11.6683
▁rzeszy	-11.6683
▁pogardy	-11.6683
▁skona	-11.6683
▁ogromy	-11.6683
▁samemu	-11.6683
▁wnuczka	-11.6683
▁żaby	-11.6683
▁szlakiem	-11.6683
kręgiem	-11.6684
▁fotografii	-11.6684
▁romantyczna	-11.6684
▁palę	-11.6685
▁maliny	-11.6686
▁oglądając	-11.6686
▁prosząc	-11.6686
▁wycie	-11.6686
▁stepie	-11.6686
▁dziką	-11.6687
▁tronie	-11.6687
▁mężczyźnie	-11.6687
▁niedawno	-11.6687
▁litewski	-11.6687
▁rogiem	-11.6687
▁żydowskiej	-11.6687
▁dostojnie	-11.6687
▁łodygi	-11.6689
▁czujnie	-11.6689
▁wziąwszy	-11.6689
▁kiełbasy	-11.6689
▁strychu	-11.6689
▁kora	-11.6689
▁miedzą	-11.669
tknęła	-11.669
▁modły	-11.669
▁zdziwienia	-11.6691
zerwane	-11.6691
▁rumaki	-11.6691
▁leją	-11.6692
▁słomy	-11.6692
▁okienka	-11.6692
▁pachnących	-11.6692
▁szczęśliwie	-11.6692
▁legendą	-11.6693
▁zabawie	-11.6693
▁strunę	-11.6693
▁pieczeni	-11.6693
▁uczę	-11.6693
▁Spogląda	-11.6694
▁skroniach	-11.6694
▁czujemy	-11.6694
prawdopodobnie	-11.6694
▁zachwytem	-11.6695
▁dziewczyną	-11.6695
▁niemocy	-11.6696
▁zastanawiam	-11.6696
▁próżnej	-11.6696
▁bijąc	-11.6696
▁posągów	-11.6696
▁zachwytu	-11.6697
▁wynik	-11.6697
▁ludom	-11.6697
▁rys	-11.6697
▁spytał	-11.6697
▁Twojego	-11.6698
▁zamienić	-11.6698
▁morska	-11.6698
prężył	-11.6698
▁zniknie	-11.6698
▁wzgórze	-11.6699
nuos	-11.6699
▁rozwiewa	-11.67
▁boska	-11.67
▁żeber	-11.6701
▁skryć	-11.6701
▁działania	-11.6701
lis	-11.6702
▁mętn	-11.6702
sięgnąć	-11.6702
▁miłej	-11.6702
▁umysłu	-11.6703
▁zgubić	-11.6704
▁chwytać	-11.6704
▁opór	-11.6704
▁skarbów	-11.6704
▁pieje	-11.6704
▁płytę	-11.6704
▁baby	-11.6705
▁wrogi	-11.6705
▁srebrzystych	-11.6705
▁Zbiera	-11.6705
▁skryta	-11.6706
▁rodziny	-11.6706
▁przeciera	-11.6708
Wesoły	-11.6708
▁kawałkiem	-11.6709
▁popod	-11.6709
▁komety	-11.671
▁głębinę	-11.6711
▁samotnej	-11.6711
▁białości	-11.6711
▁Stan	-11.6712
▁rzesza	-11.6712
▁odmierza	-11.6712
▁ciąży	-11.6712
▁drżeniem	-11.6712
▁powiewem	-11.6712
▁zgonu	-11.6713
▁ulata	-11.6713
żył	-11.6713
▁zapomniałem	-11.6713
▁wspólnych	-11.6714
▁płomieniu	-11.6714
▁wzbił	-11.6714
▁lśniącej	-11.6715
▁bożej	-11.6715
▁dzwonił	-11.6715
▁dziwo	-11.6715
▁bies	-11.6715
▁muska	-11.6715
▁biedni	-11.6716
▁szlaku	-11.6716
▁snopy	-11.6716
▁Leżą	-11.6716
its	-11.6716
niosła	-11.6717
▁syta	-11.6717
▁Pytam	-11.6718
▁żałować	-11.6718
▁mroźne	-11.6719
▁chłodno	-11.672
▁głupio	-11.672
▁syreny	-11.6721
▁Zrobi	-11.6721
▁nosem	-11.6722
▁Stop	-11.6723
▁bać	-11.6723
▁błękitach	-11.6723
▁wiekami	-11.6723
▁biednych	-11.6723
▁spocznie	-11.6723
ięzień	-11.6723
▁kobietę	-11.6724
▁cząstka	-11.6725
▁wziąłem	-11.6725
▁lazury	-11.6725
▁ciekawe	-11.6726
▁głazie	-11.6727
▁pogrzebu	-11.6728
▁wianki	-11.6728
▁okrutnie	-11.6728
▁brzuchem	-11.6728
▁pewnej	-11.6728
▁napiszę	-11.6728
▁armaty	-11.6731
▁zgasła	-11.6731
▁piorunem	-11.6731
▁opowiem	-11.6731
▁taty	-11.6731
▁prądem	-11.6732
▁mogiłach	-11.6732
▁żywą	-11.6733
▁pieszczota	-11.6734
▁czajnik	-11.6734
▁miarowy	-11.6734
▁sili	-11.6735
▁połóż	-11.6735
acja	-11.6737
▁kłamstwa	-11.6738
▁trzciny	-11.6738
▁przeczuł	-11.6738
▁szału	-11.6739
▁zimą	-11.6739
▁grosze	-11.6739
▁zniża	-11.6739
▁Młodzi	-11.6739
▁sensu	-11.6739
▁Koci	-11.674
rzec	-11.6741
▁bomby	-11.6741
▁posągi	-11.6743
▁karku	-11.6744
▁zgliszcz	-11.6744
▁grot	-11.6744
▁powiał	-11.6744
▁królów	-11.6745
▁słówka	-11.6745
▁stopa	-11.6747
▁zakłada	-11.6747
▁łuna	-11.6748
▁goryczą	-11.6749
▁Wielk	-11.675
szyn	-11.6753
▁cisze	-11.6753
ńce	-11.6754
▁łąkę	-11.6754
▁potop	-11.6755
▁spełnione	-11.6755
szek	-11.6756
▁uciekać	-11.6756
▁płomieniach	-11.6757
▁dymów	-11.6757
▁zmierzyć	-11.6758
▁share	-11.6759
▁śpisz	-11.6761
▁samotni	-11.6762
▁uparte	-11.6763
▁spokojna	-11.6764
▁Zmienia	-11.6767
▁kata	-11.6768
▁modlitwa	-11.6769
NO	-11.6769
▁rozśpiewany	-11.677
▁zwali	-11.677
▁zmieniać	-11.6772
▁noża	-11.6775
deszła	-11.6777
las	-11.6777
▁tępy	-11.6778
▁Niemc	-11.6778
▁powinna	-11.678
▁harfy	-11.678
▁daję	-11.678
▁weselem	-11.6782
▁come	-11.6783
edle	-11.6783
▁zapachów	-11.6784
SA	-11.6789
▁rozpuścił	-11.679
▁głazu	-11.679
tum	-11.6792
▁wiedźm	-11.6793
▁płoty	-11.6793
▁głuchych	-11.6793
▁ładny	-11.6794
▁gromem	-11.6795
▁niemiecki	-11.6796
▁tamto	-11.6797
▁mara	-11.6798
▁pędzą	-11.6798
wym	-11.6799
▁lecisz	-11.6801
▁niechcąc	-11.6802
▁tonem	-11.6802
▁minuty	-11.6806
▁zwyczajnie	-11.6808
▁widoków	-11.6809
▁mor	-11.6809
▁stale	-11.681
▁głębokim	-11.6811
▁wskrzesza	-11.6811
▁turkot	-11.6812
▁kwieciem	-11.6812
▁przemówi	-11.6813
▁żuki	-11.6813
▁napełnia	-11.6815
▁strachem	-11.6815
▁Głuch	-11.6815
▁krzyknie	-11.6816
▁diem	-11.6817
▁czarnemi	-11.6817
▁lotny	-11.6818
▁kształtach	-11.6818
▁Szumi	-11.6818
▁dziewica	-11.6819
▁brzuchy	-11.6819
▁węgla	-11.6819
▁piętrzy	-11.6819
▁Lot	-11.682
▁zadumane	-11.6821
▁zawzięcie	-11.6821
▁trąby	-11.6823
ary	-11.6825
tį	-11.6827
▁ruda	-11.6829
▁wirując	-11.6829
▁zamorski	-11.6833
▁pragnieniem	-11.6833
▁Otula	-11.6835
▁wylał	-11.6836
▁pracować	-11.6839
▁goręcej	-11.684
▁dęb	-11.6841
▁masy	-11.6843
umieć	-11.6843
▁właściwy	-11.6844
▁trąbka	-11.6845
ejdą	-11.6847
▁dzi	-11.6847
▁ostatek	-11.6848
▁mówimy	-11.6848
▁Patrzą	-11.6849
▁Odda	-11.685
pięty	-11.6852
▁łaskawy	-11.6853
▁ludem	-11.6856
▁wbity	-11.6856
▁pieszczę	-11.6856
▁lo	-11.6858
▁kłam	-11.6859
▁czystość	-11.6861
▁jadąc	-11.6863
▁dreszczem	-11.6863
▁ciężary	-11.6863
▁trudy	-11.6863
▁Nieb	-11.6865
▁konstrukcje	-11.6865
tko	-11.6866
ranką	-11.6866
cisz	-11.6867
▁naturę	-11.6867
yjdę	-11.6868
▁pamiątek	-11.6868
▁Esik	-11.6868
▁makiem	-11.6869
▁program	-11.6869
▁policjant	-11.6869
▁troszkę	-11.687
▁posyła	-11.6873
▁zegary	-11.6875
▁słowika	-11.6875
▁zmywa	-11.6876
▁dziewicz	-11.6876
▁Żydziak	-11.6877
▁sukn	-11.6877
▁Żywioły	-11.6879
▁przyjacielem	-11.6879
▁prószy	-11.6881
SIA	-11.6881
▁wstydź	-11.6882
▁pudełko	-11.6882
▁What	-11.6882
▁pieczęci	-11.6885
▁obłokiem	-11.6886
▁błądzić	-11.6887
▁czytania	-11.6888
▁Chwała	-11.6888
▁kotek	-11.6888
▁jaskółka	-11.6889
▁uboga	-11.6894
▁tancerz	-11.6895
dają	-11.6895
▁milcząca	-11.6897
▁uznani	-11.6898
▁grecki	-11.6899
▁wlewa	-11.69
▁dzwonki	-11.69
▁modra	-11.6901
▁10	-11.6902
▁padło	-11.6902
▁sos	-11.6906
▁time	-11.6906
żu	-11.6907
▁kurczy	-11.6907
▁odpycha	-11.6908
▁bezpiecznie	-11.6908
▁zapomniana	-11.6908
▁płasko	-11.6909
rob	-11.6909
▁przemówił	-11.6911
▁koniem	-11.6912
▁Światła	-11.6912
▁przyzywa	-11.6913
▁Mucha	-11.6915
▁krater	-11.6917
▁Mario	-11.6918
▁barwą	-11.6918
▁Pamięta	-11.6919
▁krzyki	-11.692
▁pójdziesz	-11.692
▁gęstwi	-11.6922
▁padła	-11.6923
▁tworzy	-11.6923
mal	-11.6924
II	-11.6927
▁blach	-11.6927
▁kochając	-11.6928
▁wciąga	-11.6928
▁wracając	-11.6931
▁ranku	-11.6931
▁rdzawe	-11.6934
▁kotów	-11.6938
mowa	-11.6938
didži	-11.6939
▁lepki	-11.6942
▁Zdrowie	-11.6942
▁zabawka	-11.6943
▁zostawiają	-11.6944
▁wprzódy	-11.6944
▁widm	-11.6945
▁miejscach	-11.6948
▁szukasz	-11.6948
zo	-11.6952
▁śmiga	-11.6954
▁schowa	-11.6955
▁spodu	-11.6956
▁struga	-11.6957
▁nadobne	-11.6957
▁NA	-11.6958
▁innymi	-11.6959
▁kasz	-11.6967
TA	-11.6968
▁chodnik	-11.6968
▁rozbi	-11.697
yra	-11.6972
wracali	-11.6972
▁wynurza	-11.6973
▁tęskny	-11.6973
ody	-11.6975
▁żółwi	-11.6975
▁obrazie	-11.6976
▁prywatn	-11.6978
▁poradzi	-11.6981
biegiem	-11.6981
▁Głow	-11.6982
nosić	-11.6982
rzucę	-11.6982
fr	-11.6983
minąć	-11.6983
▁żytni	-11.6984
rosło	-11.6984
▁kopyt	-11.6984
▁zachod	-11.6986
▁targ	-11.6987
liwie	-11.6988
▁oglądasz	-11.6992
▁powłok	-11.6992
▁Matko	-11.6994
▁rękaw	-11.6994
▁stękają	-11.6996
not	-11.6997
............	-11.7
▁dźwigał	-11.7
▁kotem	-11.7002
▁migocą	-11.7005
▁dzieciak	-11.7007
▁przerażone	-11.7009
▁podziemn	-11.7011
▁przebaczy	-11.7012
▁splątan	-11.7013
problemy	-11.7014
bici	-11.7015
▁płynący	-11.7018
▁trans	-11.702
▁buk	-11.7022
▁siódm	-11.7024
▁splecione	-11.7025
▁Art	-11.7029
▁nieb	-11.7029
▁сл	-11.703
▁Staw	-11.7031
▁bz	-11.7036
▁naszem	-11.7037
skiego	-11.7039
▁lico	-11.7039
▁pilne	-11.7041
▁liczne	-11.7041
▁jedwabi	-11.7046
▁wysłucha	-11.7048
▁wygrał	-11.705
gle	-11.7052
ana	-11.7053
▁stad	-11.7054
▁reg	-11.7056
▁solidn	-11.706
▁krzepkie	-11.706
▁ostatnią	-11.7061
▁nazw	-11.7065
▁skamieniały	-11.7066
▁położy	-11.7068
▁wyśpiewa	-11.707
▁stojące	-11.7071
▁walczył	-11.7072
czone	-11.7074
▁szorstkim	-11.7076
▁pęki	-11.7077
ione	-11.7078
▁wrony	-11.7079
▁stołk	-11.7082
▁pogodne	-11.7083
rysuje	-11.7085
▁różnicy	-11.7086
▁miejski	-11.7091
▁odwieczn	-11.7093
sław	-11.7094
▁ra	-11.7095
▁swobodn	-11.7095
usa	-11.7096
▁gęstw	-11.7099
ojo	-11.7099
ałam	-11.71
▁drewniane	-11.7101
▁utracony	-11.7101
▁równ	-11.7102
▁lśniący	-11.7103
▁piętro	-11.7105
▁pieścił	-11.7108
▁pozostały	-11.711
sp	-11.711
▁zatapia	-11.7111
nami	-11.7118
ast	-11.7121
▁pojawi	-11.7122
▁śnieżyste	-11.7128
▁urywa	-11.7129
▁wpatrzony	-11.7131
▁welon	-11.7134
▁trwały	-11.7135
▁friend	-11.7135
▁jaśnie	-11.7138
▁bezmyśln	-11.7139
owaniu	-11.7142
▁niski	-11.7144
ujące	-11.7145
del	-11.7147
dął	-11.7148
▁świąteczne	-11.7153
▁pragnął	-11.716
jącego	-11.7162
▁pcha	-11.7162
▁Piosenk	-11.7162
▁igła	-11.7165
▁mir	-11.7166
EJ	-11.7167
▁żyjąc	-11.7171
▁ciągłym	-11.7171
▁dzieł	-11.7175
▁kupić	-11.7177
▁milkną	-11.7177
▁kuj	-11.7178
▁szpieg	-11.7179
▁zadzwonił	-11.718
▁miny	-11.718
▁domowe	-11.7182
nęło	-11.7182
▁hand	-11.7183
▁krem	-11.7184
brew	-11.7186
▁obudził	-11.7187
wiły	-11.7188
▁mózgi	-11.7189
Miała	-11.719
▁świerszcze	-11.7193
▁skrzypk	-11.7196
▁koniak	-11.7198
still	-11.7198
budzić	-11.7202
▁trwanie	-11.7204
▁Bije	-11.7205
▁zbierał	-11.7206
▁aksamit	-11.7207
arki	-11.7208
ind	-11.7208
▁kręgosłup	-11.7209
▁zbior	-11.721
▁nuta	-11.7211
▁latarnia	-11.7219
▁fu	-11.7219
▁różn	-11.722
▁luf	-11.7221
▁wylew	-11.7224
▁mit	-11.7229
▁powietrzny	-11.7235
▁skrzydły	-11.7236
▁sprawiedliwości	-11.724
▁Szał	-11.7241
▁krajem	-11.7241
▁znają	-11.7243
▁suchym	-11.7245
▁ustawion	-11.7251
▁Żebrak	-11.7252
cznych	-11.7252
▁Bowiem	-11.7253
Mamo	-11.7255
▁gniotą	-11.7256
Dawniej	-11.7258
▁Skro	-11.7261
▁Porzuć	-11.7264
▁Szkoda	-11.7265
▁racz	-11.7269
kradł	-11.7272
▁rwąc	-11.7274
szcz	-11.7276
▁nikły	-11.7276
C	-11.7278
▁przerwa	-11.7279
pędził	-11.728
▁runą	-11.7287
Często	-11.7288
▁namiętne	-11.7291
▁rozmawiał	-11.7291
▁Niosą	-11.7293
▁szorstkie	-11.7294
gam	-11.7295
dadzą	-11.7296
▁baba	-11.7297
▁boki	-11.7299
prawy	-11.73
▁bóle	-11.73
▁bluz	-11.7301
▁związane	-11.7304
łożywszy	-11.7306
▁Zaczyna	-11.7308
ica	-11.7308
▁śmiejąc	-11.7308
▁Wyciąga	-11.7309
▁stulecia	-11.731
fer	-11.731
ąca	-11.7312
▁Szukaj	-11.7314
▁skarga	-11.7315
▁jawi	-11.7317
▁nasion	-11.7317
▁spalon	-11.7321
▁uciekaj	-11.7322
▁powrotn	-11.7322
chwiał	-11.7322
▁portk	-11.7323
dałaś	-11.7323
▁Okrucieństwo	-11.7323
słoń	-11.7325
▁jaj	-11.7328
Chciałbym	-11.7329
va	-11.7329
▁prieš	-11.7331
rącz	-11.7332
Chcę	-11.7333
▁odświętn	-11.7333
▁schodząc	-11.7335
jeśli	-11.7338
awszy	-11.7339
Ciało	-11.7339
▁Oddaj	-11.7339
dów	-11.7339
▁niewy	-11.734
▁serio	-11.7345
▁zgubił	-11.7345
mógł	-11.7346
Chociaż	-11.7346
bór	-11.7348
Teraz	-11.7349
wczoraj	-11.735
▁dziewczyn	-11.7351
życia	-11.7353
▁przepis	-11.7353
▁szloch	-11.7357
▁Spoczywa	-11.7357
Wiatr	-11.7359
▁zadzwoni	-11.7361
brać	-11.7362
ówka	-11.7363
▁spogląda	-11.7365
sam	-11.7367
▁złożone	-11.7369
▁Czasami	-11.7371
▁błądzi	-11.7376
▁kołysany	-11.738
▁tri	-11.7381
▁krat	-11.7381
▁dojdzie	-11.7382
▁uniesie	-11.7386
Tyś	-11.7387
ijo	-11.739
wodził	-11.7391
▁Nocy	-11.7391
▁dale	-11.7394
▁miech	-11.7395
niosą	-11.7399
▁warkot	-11.7399
ije	-11.74
ół	-11.7401
Ta	-11.7407
Anioł	-11.7409
▁wieś	-11.741
▁Rzecz	-11.741
ujących	-11.7411
▁dotknę	-11.7411
▁nazywam	-11.7418
▁uchem	-11.7419
▁potom	-11.7421
▁brzęczące	-11.7426
▁ścieg	-11.7426
▁przeciąga	-11.7426
▁mijał	-11.7428
▁pochyla	-11.7429
▁niczyje	-11.7432
▁rajskie	-11.7434
▁pamiętał	-11.7436
▁słon	-11.7437
▁złoży	-11.7443
sypali	-11.7443
▁fil	-11.7444
▁pest	-11.7448
mysłem	-11.7454
▁obyczaj	-11.7457
▁zmęczenie	-11.7459
płynął	-11.7462
godny	-11.7463
▁następny	-11.7465
▁pie	-11.7466
lnej	-11.7466
rzę	-11.7467
▁umierając	-11.7472
dania	-11.7475
▁pokoi	-11.7476
▁jezdni	-11.7478
szedłeś	-11.7479
▁warszawski	-11.748
▁skazan	-11.7481
▁mem	-11.7481
niejsze	-11.7484
▁trwam	-11.7485
mina	-11.7488
▁1.	-11.7491
Idzie	-11.7501
▁panienk	-11.7508
▁żmij	-11.7508
▁zdąży	-11.7515
ас	-11.7516
▁Jasn	-11.7517
Dla	-11.7517
▁znalazła	-11.7518
▁ceni	-11.7519
▁główny	-11.7519
▁spędza	-11.7519
▁Ran	-11.7523
▁witaj	-11.7524
▁sapią	-11.7525
▁Sw	-11.7526
▁pląsa	-11.7531
▁sadz	-11.7534
▁Poszł	-11.7535
▁zagasł	-11.7537
▁Wysokie	-11.7539
▁czerwono	-11.7539
▁Mówił	-11.7539
▁poję	-11.754
wor	-11.7542
▁minę	-11.7546
ron	-11.7546
▁vis	-11.7547
chodzimy	-11.7547
▁zamówi	-11.7554
▁maki	-11.7554
▁Drobn	-11.7555
▁wybiegł	-11.7555
asm	-11.7557
▁Blad	-11.756
▁nędzny	-11.7562
▁Bar	-11.7562
▁brąz	-11.7563
▁ptaszę	-11.7563
sadził	-11.7565
▁maleńkie	-11.7567
wieść	-11.7567
▁spocon	-11.7568
▁nazwisk	-11.7568
▁bohatera	-11.7569
▁jaskr	-11.757
▁chroni	-11.7571
biegł	-11.7571
ciągnął	-11.7573
wir	-11.7575
▁žodži	-11.7575
▁okolic	-11.7577
straszyć	-11.7578
▁ostrożnie	-11.7586
▁odbite	-11.7588
spie	-11.759
nione	-11.759
▁fin	-11.759
▁skład	-11.7592
drzeć	-11.7595
czuciem	-11.7596
ciska	-11.7598
▁dnieje	-11.7599
▁świec	-11.76
ting	-11.7601
▁oddal	-11.7603
dławił	-11.7604
▁trą	-11.7607
▁lodowe	-11.7615
▁próżnia	-11.7618
lny	-11.7626
▁jedwabny	-11.7627
▁czynił	-11.7627
cień	-11.763
don	-11.763
▁ołtarz	-11.7631
▁lśnił	-11.7632
robić	-11.7633
▁błędne	-11.7633
wrócił	-11.7635
ac	-11.7635
niesz	-11.7636
wych	-11.7637
▁torba	-11.7638
▁De	-11.7641
▁palący	-11.7644
▁Wierzę	-11.7649
tknięte	-11.7649
▁ruszy	-11.7652
▁zmaga	-11.7652
▁powszednie	-11.7653
▁pancerz	-11.7653
stan	-11.7653
▁jedziesz	-11.7656
▁stopnie	-11.766
▁popłynie	-11.7664
▁ponure	-11.7666
▁insz	-11.7667
▁usłyszał	-11.7672
oda	-11.7674
tar	-11.7675
biegła	-11.7676
▁przybiera	-11.7676
▁drutu	-11.7677
pie	-11.7678
▁żyj	-11.7681
▁tas	-11.7682
su	-11.7683
czyk	-11.7684
▁Zbudź	-11.7685
▁wolnym	-11.7688
nią	-11.769
wrócę	-11.769
▁powiedziała	-11.7692
ród	-11.7693
Potem	-11.7694
té	-11.7695
ino	-11.7696
któr	-11.7697
▁bro	-11.77
nięciem	-11.77
TY	-11.7704
▁opuszczon	-11.7704
▁modli	-11.7704
▁przebieg	-11.7705
chodzi	-11.7705
▁far	-11.7706
▁Park	-11.7706
▁seledyn	-11.7706
ziewa	-11.7708
af	-11.7711
▁idea	-11.7711
▁Miło	-11.7712
▁westchnie	-11.7713
▁przykłada	-11.7715
▁kamienn	-11.7717
wrót	-11.7718
vos	-11.7718
lnym	-11.772
▁widziane	-11.772
man	-11.7721
▁ukos	-11.7722
▁leczy	-11.7724
▁żyjący	-11.7726
▁płynny	-11.7727
▁przypomniał	-11.7728
▁strom	-11.7729
▁Jęk	-11.7737
▁umyka	-11.7742
▁szorstk	-11.7743
▁wrzos	-11.7743
▁prawi	-11.7743
▁nosić	-11.7745
▁pachniał	-11.7747
szyte	-11.775
▁legend	-11.7751
▁wyglądają	-11.7753
▁wojen	-11.7755
pisz	-11.7755
▁ojczyst	-11.7756
sypuje	-11.7759
▁późn	-11.7759
▁Anioła	-11.776
▁Chwila	-11.7761
▁wzajemn	-11.7765
▁place	-11.7766
▁plami	-11.7766
▁nurza	-11.7768
ołki	-11.777
▁nud	-11.7779
▁hu	-11.7782
▁piw	-11.7783
▁komnat	-11.7787
▁kwitnący	-11.7787
▁policzk	-11.7787
▁upaja	-11.7788
biegam	-11.7798
▁pyski	-11.7803
▁biał	-11.7803
▁odsłoni	-11.781
▁jaja	-11.7811
▁otwierają	-11.7813
▁sklepieni	-11.7814
▁suszy	-11.7815
▁pracuj	-11.7815
śpiewajmy	-11.7815
▁złożył	-11.7817
▁Stare	-11.7819
▁odpływ	-11.7824
▁służą	-11.7826
▁gęsty	-11.7828
▁grzyb	-11.7829
▁próbują	-11.7829
óty	-11.783
▁lu	-11.7833
▁prześni	-11.7836
hi	-11.784
▁wiedz	-11.784
▁zwinięty	-11.7842
sh	-11.7849
biegną	-11.785
▁liry	-11.7851
▁turni	-11.7852
▁dębowy	-11.7854
▁lekcj	-11.7856
wierzyć	-11.7856
▁dźwięczą	-11.7857
▁Żyje	-11.7858
▁atom	-11.7859
łożone	-11.786
▁Pol	-11.786
▁mędrc	-11.7862
▁pójdź	-11.7862
▁warzyw	-11.7862
▁błysł	-11.7865
ка	-11.7866
liści	-11.7867
▁kai	-11.7867
▁có	-11.7868
▁krążył	-11.787
▁pociesz	-11.7875
▁them	-11.7875
▁szyk	-11.7876
Op	-11.788
chód	-11.788
▁istnieją	-11.7884
▁żwaw	-11.7888
▁ostateczne	-11.7889
▁rozległ	-11.789
▁lie	-11.789
▁Lo	-11.7891
▁Żółt	-11.7892
▁uciekają	-11.7892
zm	-11.7892
▁wszelak	-11.7893
dał	-11.7895
▁dobywa	-11.7895
chnął	-11.7897
▁Wiedz	-11.7898
szcze	-11.7898
▁niedźwiedzie	-11.7899
▁uśpi	-11.79
gnij	-11.7901
▁żołnierza	-11.7902
▁przypadkow	-11.7903
.............	-11.7904
niosłem	-11.7904
▁wspólny	-11.7905
▁pielgrzymi	-11.7906
▁połyka	-11.7907
▁Wesoł	-11.7908
ęski	-11.7909
szystkich	-11.7909
▁szturm	-11.791
▁ptasz	-11.7911
▁weń	-11.7913
pust	-11.7914
▁wieszczy	-11.7914
▁chorągiew	-11.7915
▁ciżb	-11.7915
▁utkany	-11.7916
мі	-11.7917
▁prorok	-11.7922
▁schron	-11.7925
real	-11.7929
▁łkają	-11.793
▁cienki	-11.7931
▁Wrócił	-11.7931
lę	-11.7932
▁konik	-11.7935
▁odarty	-11.794
▁lecący	-11.7943
▁fakt	-11.7944
▁pięt	-11.7949
▁oręż	-11.7949
wiało	-11.795
▁widzenie	-11.7951
▁oglądał	-11.7952
szczu	-11.7954
▁dostojn	-11.7956
▁mieszkam	-11.7956
▁Mrucz	-11.7957
▁Mickiewicz	-11.7958
▁they	-11.7958
▁kłamstw	-11.796
▁Drzew	-11.796
▁mętny	-11.796
▁Ros	-11.796
▁przyrod	-11.7961
▁słabi	-11.7961
▁reklam	-11.7963
▁szpon	-11.7965
▁znużenie	-11.7965
▁niemowlę	-11.7965
▁klawisz	-11.7967
▁kochają	-11.7967
▁laleczk	-11.7969
▁zgaduj	-11.7972
stała	-11.7974
▁wzmaga	-11.7975
▁Wio	-11.7975
łość	-11.7977
▁śmierdząc	-11.7979
jechali	-11.7983
ntry	-11.7984
płyń	-11.7984
padli	-11.7985
—-	-11.7986
▁cykl	-11.7991
▁zjawisk	-11.7992
▁pochył	-11.7993
▁zamiar	-11.7995
wem	-11.7998
▁biskup	-11.7999
▁wszystk	-11.7999
▁gruz	-11.8001
▁Dzwon	-11.8001
▁wystąpi	-11.8003
ża	-11.8005
▁zdobywa	-11.8005
▁śmiele	-11.8006
▁zszedł	-11.8008
▁znajduj	-11.8008
groza	-11.8008
▁balkon	-11.8009
▁organ	-11.8009
sieroc	-11.8009
runo	-11.8009
▁żegnaj	-11.8011
▁Gorąc	-11.8013
▁sprzęt	-11.8013
▁sposob	-11.8014
▁nieroz	-11.8015
▁wątłe	-11.8017
ris	-11.8017
▁wirują	-11.8017
▁uporczyw	-11.8018
znałem	-11.8018
przeciwko	-11.8019
▁noży	-11.8019
▁kołacz	-11.8019
▁katedr	-11.8023
▁kred	-11.8023
▁wiklin	-11.8025
▁pląs	-11.8025
▁składają	-11.8025
▁kolęd	-11.8025
▁mew	-11.8026
▁garnitur	-11.8026
▁Tatr	-11.8027
▁arkad	-11.8027
▁Dy	-11.8028
▁wyraża	-11.8029
▁rzeczywistości	-11.8029
▁słoik	-11.803
▁Głupi	-11.803
słuchany	-11.803
wisły	-11.8032
▁pieniądz	-11.8032
▁Krwi	-11.8035
▁poemat	-11.8036
▁zbawienie	-11.8037
stu	-11.8038
▁gardzi	-11.8039
▁milczą	-11.804
▁chroń	-11.804
Modlitw	-11.804
▁spodni	-11.8041
▁pokaż	-11.8041
▁zmieści	-11.8041
▁chwilo	-11.8041
▁kwesti	-11.8041
▁fosfor	-11.8042
▁leciał	-11.8043
▁veik	-11.8044
▁wydrze	-11.8044
▁topią	-11.8046
▁więzienia	-11.8047
▁wloką	-11.8048
▁szczątk	-11.8048
▁cór	-11.8048
▁loch	-11.8048
▁codzienny	-11.8049
dawaj	-11.8051
▁dokument	-11.8051
▁okruch	-11.8051
▁żwir	-11.8051
▁sucha	-11.8051
▁fa	-11.8052
▁druh	-11.8052
▁Ręka	-11.8053
▁szukają	-11.8053
▁zmrok	-11.8053
▁starszy	-11.8054
▁jeż	-11.8056
▁zakręt	-11.8056
▁znajom	-11.8056
▁pójd	-11.8058
▁uwięzi	-11.806
▁muszk	-11.806
▁wewnętrzne	-11.8061
▁wyzna	-11.8061
cina	-11.8063
▁termin	-11.8063
zji	-11.8063
▁piaski	-11.8064
▁Maik	-11.8064
▁niedoskonał	-11.8065
▁tapczan	-11.8065
▁płonę	-11.8065
▁niepokoje	-11.8065
▁nieboskłon	-11.8065
▁autor	-11.8066
▁niebyt	-11.8066
▁podwórza	-11.8068
▁obłąkane	-11.8069
▁bezpośredni	-11.8069
ężczyźni	-11.8069
▁miazg	-11.807
▁ciemię	-11.8071
▁studzien	-11.8071
▁rajstop	-11.8072
pierdol	-11.8072
▁odzyska	-11.8072
ion	-11.8073
▁pojmie	-11.8074
▁Spokojn	-11.8074
▁wzniosły	-11.8075
▁nizin	-11.8075
▁Zimn	-11.8076
▁kołnierz	-11.8077
▁Poczuł	-11.8077
▁wieżyc	-11.8078
▁młodo	-11.8078
▁perfum	-11.808
▁про	-11.808
▁zbierają	-11.808
dziesięci	-11.808
▁Harmoni	-11.808
▁błoga	-11.808
▁dialog	-11.808
▁grieve	-11.808
▁kaloryfer	-11.808
▁kamuflaż	-11.808
▁książce	-11.808
▁momencie	-11.808
▁nienawiść	-11.808
▁ołowiu	-11.808
▁parapecie	-11.808
▁przeróżn	-11.808
▁rzewną	-11.808
▁triūsas	-11.808
▁trwóg	-11.808
▁zazdroszczę	-11.808
▁znaleźli	-11.808
▁ćwierć	-11.808
▁Piosnk	-11.808
▁again	-11.808
▁jastrzębi	-11.808
▁klepisku	-11.808
▁odkrył	-11.808
▁pałeczką	-11.808
▁pokolenie	-11.808
▁przelocie	-11.808
▁sfinks	-11.808
▁ziaren	-11.808
▁zmurszały	-11.808
▁bezpieczeństwa	-11.808
▁ofierze	-11.808
▁szerzej	-11.808
▁wrogów	-11.808
▁ścieżek	-11.808
▁najgłębsz	-11.808
▁ukośn	-11.808
Niegdyś	-11.808
gryźć	-11.808
▁Obraca	-11.808
▁Szlachcic	-11.808
▁niechcenia	-11.808
▁wtorek	-11.808
▁kołyska	-11.808
▁kąkol	-11.808
▁dzięcioł	-11.808
▁ścieżyn	-11.808
▁zdrów	-11.808
▁Widma	-11.808
▁muzeum	-11.808
kuty	-11.808
▁podwórko	-11.808
▁pleców	-11.808
širdį	-11.808
▁Niemiec	-11.808
▁Ryder	-11.808
▁płakali	-11.808
▁drżę	-11.808
▁żywiole	-11.808
▁Dzielą	-11.808
▁pobyt	-11.808
▁miarowo	-11.808
▁bliscy	-11.808
▁skrzydło	-11.808
▁policzek	-11.808
▁sidła	-11.808
▁wybrzeżu	-11.808
▁liepi	-11.808
▁Paweł	-11.808
▁wrzące	-11.808
▁materiał	-11.808
▁korzeń	-11.808
▁statek	-11.808
▁Kuszenie	-11.808
▁Nemun	-11.808
▁fujarce	-11.808
▁przenigdy	-11.808
рі	-11.808
▁dziadzi	-11.808
▁miłować	-11.808
▁otwarł	-11.808
▁wyobrazić	-11.808
▁jazgot	-11.808
▁Cześć	-11.808
▁sierpień	-11.808
▁ściśnięte	-11.808
▁piosenek	-11.808
▁pojedyncze	-11.808
▁biedną	-11.808
▁gleba	-11.808
▁oporu	-11.808
▁Świerszcz	-11.8081
Chrup	-11.8081
▁przymknięt	-11.8081
▁Wznosi	-11.8081
▁biali	-11.8081
▁pierścień	-11.8081
▁kraśn	-11.8081
▁przestrzał	-11.8081
▁mgławic	-11.8081
▁chłopcem	-11.8081
▁niespełn	-11.8081
bę	-11.8081
▁przedpokoju	-11.8081
▁Bociek	-11.8081
▁zaklęć	-11.8081
▁ogniskiem	-11.8081
▁rewolucj	-11.8081
▁namiętność	-11.8081
▁żaglach	-11.8081
▁omacku	-11.8082
▁spostrzegł	-11.8082
▁Morderstwo	-11.8082
▁straszną	-11.8082
▁herbatę	-11.8082
▁rzędem	-11.8082
▁koszulę	-11.8082
▁półmroku	-11.8082
▁polsku	-11.8082
▁Jagiełło	-11.8082
▁Zwycięstwo	-11.8082
▁niewiniątko	-11.8082
▁uczty	-11.8082
▁poduszkę	-11.8082
▁Przybylsk	-11.8082
▁gęstą	-11.8082
▁grozę	-11.8082
▁wejścia	-11.8082
▁rozcina	-11.8082
▁oczęta	-11.8082
▁ciastka	-11.8082
pilnuje	-11.8082
▁rączek	-11.8082
▁umyśle	-11.8082
▁trzewiczki	-11.8082
▁czaszek	-11.8083
▁dear	-11.8083
▁czelad	-11.8083
▁rękawiczki	-11.8083
▁odnaleźć	-11.8083
▁wioska	-11.8083
▁sławie	-11.8083
▁Powstanie	-11.8083
▁kontroli	-11.8083
▁Juanie	-11.8083
▁gałązek	-11.8083
widzeń	-11.8083
▁Myślałem	-11.8083
▁Kilk	-11.8083
▁karawan	-11.8083
▁kluski	-11.8084
▁wieczorną	-11.8084
▁rodziców	-11.8084
▁wiosko	-11.8084
▁głaszcze	-11.8084
▁Śmiało	-11.8084
▁kształcie	-11.8084
▁mgnienie	-11.8084
▁orkiestry	-11.8084
▁22	-11.8084
▁rynku	-11.8084
▁wypowiedzieć	-11.8084
▁zerwie	-11.8084
▁skrą	-11.8084
tury	-11.8084
▁tuoj	-11.8084
▁pozdrowiony	-11.8084
▁weselu	-11.8084
▁dzienne	-11.8084
▁dworca	-11.8085
▁akt	-11.8085
▁wyszły	-11.8085
▁panowanie	-11.8085
▁rozpędza	-11.8085
▁wspaniałe	-11.8085
▁sianie	-11.8085
▁tytoniu	-11.8085
▁pozycję	-11.8086
▁skiby	-11.8086
▁związku	-11.8086
▁firanki	-11.8086
▁wysiłkiem	-11.8086
▁odległość	-11.8086
▁wilgo	-11.8086
▁gruszkę	-11.8086
▁Jadą	-11.8086
▁rozwiązanie	-11.8086
▁pławi	-11.8086
▁fall	-11.8086
▁osób	-11.8086
▁policyjn	-11.8086
▁mrówki	-11.8086
▁Wschodzi	-11.8086
▁wybór	-11.8086
▁berło	-11.8087
▁dekoracj	-11.8087
▁energii	-11.8087
▁zawieszony	-11.8087
▁kornie	-11.8087
▁pychę	-11.8087
▁odruch	-11.8087
▁najniższ	-11.8087
find	-11.8088
▁nóżką	-11.8088
▁drobną	-11.8088
▁wdzięczności	-11.8088
▁bezdroża	-11.8088
▁drżenia	-11.8088
▁darbo	-11.8089
▁son	-11.8089
▁piosnki	-11.8089
▁karze	-11.8089
▁gatunku	-11.8089
▁lecę	-11.8089
▁publiczności	-11.8089
▁skupieniu	-11.8089
Chciałabym	-11.809
▁soul	-11.809
laiko	-11.809
▁męstwo	-11.809
▁miasteczka	-11.809
▁kolejce	-11.809
▁szumiały	-11.809
▁olbrzymów	-11.8091
▁ściskając	-11.8091
▁Zrywa	-11.8091
▁Córk	-11.8091
▁wirze	-11.8091
▁wspaniała	-11.8091
▁zmarłe	-11.8091
▁bezwiednie	-11.8091
▁brzmiące	-11.8091
▁Kręc	-11.8091
▁przybity	-11.8091
▁historie	-11.8091
▁chwilka	-11.8091
▁Więzienie	-11.8092
▁Pięknie	-11.8092
▁poetów	-11.8092
▁pannę	-11.8092
▁trwożnie	-11.8092
▁plakat	-11.8092
▁mruczy	-11.8092
▁kołyski	-11.8092
rozwiane	-11.8092
▁wian	-11.8092
▁sterczy	-11.8092
▁zgrozą	-11.8092
▁wosku	-11.8092
Dziewczyno	-11.8092
▁pąki	-11.8093
▁Straśn	-11.8093
▁choroba	-11.8093
▁słowiański	-11.8093
▁ludowi	-11.8093
▁spytać	-11.8093
▁skręcone	-11.8093
wozu	-11.8093
▁środkiem	-11.8093
▁gruzach	-11.8093
▁melodie	-11.8093
słyszany	-11.8094
▁Warg	-11.8094
▁budowy	-11.8094
▁rachunki	-11.8094
▁bucie	-11.8094
▁złożysz	-11.8094
▁spodniach	-11.8094
▁pychą	-11.8094
▁Pamiętasz	-11.8095
▁rozmaryn	-11.8095
▁dekoracyjne	-11.8095
▁stworzyć	-11.8095
▁odlata	-11.8095
▁gruzów	-11.8095
▁Teresie	-11.8095
▁faktów	-11.8095
▁Leżał	-11.8095
▁wróble	-11.8096
Literatur	-11.8096
▁znamion	-11.8096
▁śmieszn	-11.8096
▁przedziwn	-11.8097
▁gorącą	-11.8097
▁szczypie	-11.8097
▁Czuł	-11.8097
▁zamku	-11.8097
▁wielości	-11.8097
▁fryzjer	-11.8097
▁Budd	-11.8097
▁lalki	-11.8097
▁pospołu	-11.8097
▁plastr	-11.8097
▁krasie	-11.8097
▁jedwabnej	-11.8098
▁mchy	-11.8098
▁dodatku	-11.8098
▁królewską	-11.8098
▁przesiąknięt	-11.8098
▁udawać	-11.8098
zgrabnie	-11.8099
piąć	-11.8099
▁słoje	-11.8099
▁znikają	-11.8099
▁odwiedza	-11.8099
▁kusząc	-11.8099
▁cichość	-11.8099
▁chatki	-11.8099
▁petit	-11.8099
▁uśnie	-11.8099
▁żyto	-11.8099
kwietne	-11.8099
▁pękło	-11.8099
▁łoskotem	-11.81
▁who	-11.81
▁aš	-11.81
▁cudną	-11.81
▁głog	-11.81
▁ognisku	-11.81
▁odlot	-11.81
▁szewc	-11.8101
▁ugorów	-11.8101
▁zdejmie	-11.8101
▁smoki	-11.8101
▁choinki	-11.8102
▁bzu	-11.8102
▁figurki	-11.8102
▁zasnął	-11.8102
▁płatków	-11.8102
▁gronie	-11.8103
▁ukrycia	-11.8103
▁zakazan	-11.8103
lon	-11.8103
▁męczeństwa	-11.8103
▁drużyna	-11.8103
▁schować	-11.8104
▁szyki	-11.8104
▁uroczysk	-11.8104
▁pokażę	-11.8104
▁kurhanie	-11.8105
▁lochu	-11.8105
▁poszło	-11.8105
▁zrób	-11.8105
▁ogromu	-11.8106
Ciężko	-11.8106
▁Powietrz	-11.8106
▁widmem	-11.8106
▁Twarde	-11.8106
▁kleszcze	-11.8107
▁zgodzie	-11.8107
▁podzielić	-11.8107
▁kotka	-11.8107
▁harmonia	-11.8107
▁off	-11.8107
▁zasłonę	-11.8107
▁urodzenia	-11.8107
▁ucieczki	-11.8107
▁usłyszysz	-11.8108
▁kominów	-11.8108
▁kultury	-11.8108
▁nazwę	-11.8108
aid	-11.8108
▁pianie	-11.8108
▁aksamitu	-11.8108
▁słonecznik	-11.8108
▁broczy	-11.8108
▁ostrzega	-11.8109
▁zaroślach	-11.8109
resztą	-11.8109
▁piwnicach	-11.8109
▁bose	-11.8109
▁strzechy	-11.811
▁Anny	-11.811
▁włożył	-11.811
▁Rano	-11.811
▁zrodzona	-11.811
▁wyznać	-11.8111
▁pachą	-11.8111
▁potwory	-11.8111
▁chłopi	-11.8112
▁lawy	-11.8112
▁Czarna	-11.8112
▁soków	-11.8112
▁nędzę	-11.8112
▁warsztatu	-11.8113
▁przygody	-11.8113
kra	-11.8114
▁pogardą	-11.8114
▁Kończy	-11.8114
▁podobnie	-11.8115
▁żywiołów	-11.8115
▁zimie	-11.8115
▁tear	-11.8115
Ginie	-11.8115
▁dziurę	-11.8115
▁okowy	-11.8116
▁wrzawy	-11.8116
▁oparty	-11.8116
▁grożąc	-11.8117
▁śmieję	-11.8117
▁need	-11.8117
▁sztandarów	-11.8117
▁Kana	-11.8117
armie	-11.8118
▁mocną	-11.8118
▁skorupę	-11.8119
▁ławic	-11.8119
▁ślepiach	-11.812
▁owady	-11.812
▁szatę	-11.812
▁wakacje	-11.812
▁złocistej	-11.812
▁end	-11.8121
▁nieskończonej	-11.8121
▁спів	-11.8121
▁łańcuchów	-11.8121
▁chwytam	-11.8122
▁żurawie	-11.8122
▁kroplę	-11.8122
▁służyć	-11.8122
▁klęczy	-11.8122
▁cudna	-11.8123
▁rysunki	-11.8123
▁burzliwe	-11.8123
▁próbę	-11.8123
▁zdawało	-11.8124
▁odegra	-11.8124
▁tamtą	-11.8124
▁zgiełku	-11.8124
▁pogrąża	-11.8124
▁gorączkę	-11.8124
▁Znajdzie	-11.8124
▁Czytam	-11.8124
▁gmachu	-11.8124
▁potrzebuje	-11.8124
▁sztywne	-11.8125
▁ślepych	-11.8125
▁wrogiem	-11.8125
▁śnieżycy	-11.8125
▁płowy	-11.8125
▁okiennic	-11.8126
▁wzajemnie	-11.8126
▁powtarzał	-11.8126
▁domowych	-11.8126
▁wspominać	-11.8126
▁konający	-11.8126
delikatnie	-11.8127
▁konary	-11.8128
▁przemija	-11.8128
▁znuży	-11.8128
▁morskich	-11.813
▁Dziwne	-11.813
▁dachach	-11.813
Nic	-11.8131
▁kłęby	-11.8131
▁świątynię	-11.8131
patrzeni	-11.8131
równać	-11.8132
▁Rosną	-11.8132
▁tajemniczej	-11.8133
▁Trucizna	-11.8133
▁szyje	-11.8133
▁pociągów	-11.8133
▁tryb	-11.8134
▁uroku	-11.8134
▁przyrody	-11.8135
▁dolinę	-11.8135
▁Czu	-11.8136
ves	-11.8137
▁śmiejesz	-11.8137
▁gwałtownie	-11.8138
▁Tarp	-11.8138
▁szable	-11.8138
▁niania	-11.8138
▁grzmią	-11.8138
▁świetln	-11.8139
▁ulicami	-11.8139
▁uroda	-11.8139
▁kolorem	-11.8139
▁cyfry	-11.814
▁uciekłem	-11.814
▁złot	-11.814
▁spotkamy	-11.814
▁jaśnieje	-11.8141
▁suchych	-11.8141
▁Pisze	-11.8141
▁auta	-11.8142
▁obrodzi	-11.8142
▁Star	-11.8143
▁przemocą	-11.8143
▁Dźwiga	-11.8143
▁szram	-11.8144
▁dosięga	-11.8144
miał	-11.8144
uch	-11.8145
▁krasy	-11.8146
▁ołtarza	-11.8146
▁szmaty	-11.8146
▁pną	-11.8146
▁Skarb	-11.8147
▁tors	-11.8147
▁łańcuchu	-11.8147
zować	-11.8147
dziobie	-11.8147
▁dojrzeć	-11.8148
▁sieroty	-11.8148
▁tajemniczych	-11.8148
▁utrzyma	-11.8149
▁skraj	-11.8149
▁garścią	-11.8149
▁pradziada	-11.8149
▁Ofiara	-11.8149
▁zaśmiała	-11.8149
▁Beata	-11.815
▁rannych	-11.815
▁spragnione	-11.815
▁krajobrazu	-11.8151
▁widzicie	-11.8152
▁szczerym	-11.8153
▁Czoł	-11.8153
▁skargą	-11.8153
▁Dziecię	-11.8154
▁wyszło	-11.8156
▁ceny	-11.8156
▁przestać	-11.8156
▁grzywą	-11.8157
▁sina	-11.8158
ped	-11.8159
▁śpiewna	-11.8159
▁autobusu	-11.8159
▁skórach	-11.8159
▁pomyślę	-11.8159
▁nieprze	-11.8159
▁Polaków	-11.8159
▁twardej	-11.8159
▁męczarnie	-11.8161
▁Bank	-11.8161
▁ostrzem	-11.8161
▁zamknięta	-11.8161
▁bytów	-11.8162
▁przestrzeniach	-11.8162
▁skorupy	-11.8162
▁żywicą	-11.8162
▁lustrach	-11.8163
▁śniły	-11.8163
▁szosy	-11.8163
▁znajduje	-11.8164
▁przeczyste	-11.8164
▁nerwowy	-11.8164
▁śpiących	-11.8165
winę	-11.8165
▁pytasz	-11.8165
▁liśćmi	-11.8166
▁raka	-11.8166
▁głęboka	-11.8167
▁śmiertelnych	-11.8168
▁znalazłem	-11.8168
▁wisiał	-11.8168
▁czyja	-11.8169
▁Tajemnic	-11.8169
▁mężczyzny	-11.8169
▁niebieskiego	-11.8169
▁niemal	-11.817
▁dzieląc	-11.8171
▁Stróż	-11.8171
▁kurhany	-11.8172
▁słuchu	-11.8173
▁mrowie	-11.8173
▁Robi	-11.8173
▁Jerz	-11.8173
▁główki	-11.8174
▁włoski	-11.8175
▁wilcze	-11.8175
▁sceny	-11.8176
▁śpiewanie	-11.8176
▁miej	-11.8176
▁mrucząc	-11.8177
▁doskonała	-11.8177
stas	-11.8177
▁ramieni	-11.8178
▁sięgnął	-11.8178
▁obecnością	-11.8179
▁powstały	-11.8179
▁pokazuje	-11.818
▁mienią	-11.818
szcza	-11.818
▁wszystkiem	-11.8181
tknęły	-11.8181
▁przeciągły	-11.8181
▁Bawi	-11.8182
▁tato	-11.8182
▁lecieć	-11.8182
▁mostem	-11.8182
tkach	-11.8183
▁dziura	-11.8183
▁gwaru	-11.8184
ose	-11.8185
▁młoty	-11.8186
▁szklank	-11.8186
▁raje	-11.8186
▁zwiędł	-11.8187
▁szmerem	-11.8187
▁cieniami	-11.8188
▁zakamark	-11.8189
▁chłodna	-11.8189
▁nieznanej	-11.8189
pisał	-11.8189
▁puchem	-11.819
▁szklisty	-11.819
▁grup	-11.8191
▁składni	-11.8193
▁wsiąka	-11.8195
▁niw	-11.8195
▁ołtarzem	-11.8195
▁młodzian	-11.8196
▁stosunk	-11.8196
▁rzadka	-11.8197
▁bratnie	-11.8197
▁błyskawicy	-11.8198
▁wyrzucony	-11.8198
▁śliczny	-11.8198
▁wstanę	-11.8199
▁potoki	-11.8199
▁płomienne	-11.8199
▁znajomych	-11.8199
▁pudełka	-11.82
▁Płacze	-11.8201
▁nabrzmiała	-11.8202
▁górami	-11.8202
chło	-11.8203
ба	-11.8204
▁obszary	-11.8205
▁з	-11.8205
▁jamy	-11.8205
▁kreśląc	-11.8206
▁Przebacz	-11.8206
ли	-11.8207
▁miękkiej	-11.8207
nikiem	-11.8207
▁lękliw	-11.8208
▁Święte	-11.8208
▁gorzkiej	-11.8209
▁grobow	-11.8209
▁fizyczn	-11.8209
▁Chciała	-11.821
▁nieśmiały	-11.821
nieje	-11.821
biorę	-11.8211
▁Czekamy	-11.8211
▁polami	-11.8212
▁płaczesz	-11.8212
▁weg	-11.8213
▁Pachnąc	-11.8213
▁przychyl	-11.8213
▁przepaście	-11.8214
znacznie	-11.8214
▁pour	-11.8215
▁krzewy	-11.8215
▁milczącą	-11.8215
▁Śnił	-11.8216
▁zapłakan	-11.8216
▁butem	-11.8217
▁wzgórzach	-11.8217
▁świeżą	-11.8218
▁stawa	-11.8218
czyć	-11.8218
▁wieńcem	-11.8219
▁porządk	-11.8219
▁ucichł	-11.8221
▁Róże	-11.8221
▁sprawił	-11.8221
▁obejmuj	-11.8221
▁trupie	-11.8223
▁proga	-11.8225
▁starca	-11.8225
▁plany	-11.8225
▁trumienk	-11.8227
▁żniwo	-11.8228
▁kasy	-11.8228
▁marmury	-11.8232
▁prostym	-11.8233
▁wstrzyma	-11.8236
▁mirt	-11.8236
▁wiatry	-11.8237
▁skoczy	-11.8237
▁sennej	-11.8237
▁ruchów	-11.8238
▁święcie	-11.824
▁martw	-11.8244
▁niewiasta	-11.8244
▁dziesiąty	-11.8245
▁straże	-11.8246
▁ekonomi	-11.8247
▁Huk	-11.8247
stałam	-11.8248
zu	-11.8249
▁różnie	-11.8251
▁rozbija	-11.8253
ryje	-11.8253
▁lutnie	-11.8253
▁śliskie	-11.8254
▁tłukł	-11.8254
▁bratem	-11.8255
▁panien	-11.8257
▁Także	-11.8257
▁Wlazł	-11.8258
▁jary	-11.826
▁osoba	-11.826
▁Zaszumiał	-11.8261
▁wytrwał	-11.8262
▁oszczep	-11.8264
▁Para	-11.8264
▁czyżby	-11.8264
▁mocnym	-11.8264
▁wieją	-11.8267
▁krajów	-11.8268
▁zwykła	-11.827
cał	-11.8273
kryte	-11.8274
legli	-11.8274
use	-11.8276
▁śnię	-11.8276
▁punkty	-11.8277
ux	-11.8278
▁spała	-11.8278
▁czynić	-11.8283
▁upe	-11.8284
chen	-11.8284
▁rzucać	-11.8285
Patrz	-11.8286
▁tar	-11.8287
▁bursztynowy	-11.8288
ścigać	-11.8289
им	-11.8289
sky	-11.8289
▁kochaniem	-11.8291
▁mistrza	-11.8291
▁Iš	-11.8291
▁zarosły	-11.8292
▁uczony	-11.8292
▁niwecz	-11.8292
rać	-11.8294
▁zobaczyła	-11.8294
▁wygra	-11.8294
▁rozdziela	-11.8295
▁zmarła	-11.8295
▁trawach	-11.8296
▁śpiewasz	-11.8296
rwij	-11.8297
▁śniegów	-11.8299
▁wyprowadza	-11.8299
▁świece	-11.8299
▁miesięczne	-11.8302
skrę	-11.8303
▁prowadząc	-11.8303
▁ranne	-11.8303
kłada	-11.8306
Nasz	-11.8307
etnie	-11.8307
▁stromy	-11.8308
▁pochwycił	-11.8312
▁opiera	-11.8312
ęty	-11.8312
▁skamieniał	-11.8314
▁Śpiewała	-11.8322
▁mruży	-11.8324
▁Motyka	-11.8324
▁nawleka	-11.8324
▁kapela	-11.8325
▁Niestety	-11.8328
rybą	-11.8329
▁pewna	-11.8329
▁elfy	-11.833
▁dziewann	-11.8331
▁celi	-11.8331
▁zapomniany	-11.8331
▁promieniem	-11.8331
▁Safo	-11.8332
▁krzyczeć	-11.8332
▁Przeszłość	-11.8333
▁зорі	-11.8333
▁Filozof	-11.8333
▁Szczęścia	-11.8333
▁Prędzej	-11.8333
▁Zazdrość	-11.8333
▁Dziękuję	-11.8333
▁plaukia	-11.8333
▁Głupota	-11.8333
▁kłęb	-11.8333
▁Bracia	-11.8333
▁Emigrant	-11.8333
▁Rzekłbyś	-11.8334
▁zagadki	-11.8334
▁Rośnie	-11.8334
▁Bezdomność	-11.8334
▁where	-11.8335
▁swobodny	-11.8336
▁Podstęp	-11.8337
▁bodaj	-11.8337
▁samochody	-11.8338
▁Łodzi	-11.8338
▁kucharz	-11.8338
▁Ruiny	-11.8338
▁Zegar	-11.8339
▁Słyszysz	-11.8339
▁Stań	-11.8339
yjdą	-11.834
czkiem	-11.834
▁Koło	-11.8341
▁gorzka	-11.8342
▁Pierwszy	-11.8342
kowy	-11.8343
▁gładzi	-11.8344
yczki	-11.8344
▁kurtk	-11.8344
▁buzia	-11.8345
▁umierania	-11.8345
skim	-11.8345
▁wyglądam	-11.8345
▁Panowie	-11.8348
▁hal	-11.8349
▁piet	-11.8349
▁tarcza	-11.835
▁Przyjacielu	-11.835
▁zrozumienia	-11.8351
▁ongi	-11.8351
▁listki	-11.8351
▁płomyki	-11.8351
▁chętn	-11.8352
▁dawny	-11.8353
▁słom	-11.8354
▁poczęty	-11.8356
▁Piękny	-11.8357
▁Dobra	-11.8357
▁wchodzą	-11.8357
▁dodatki	-11.8358
▁Śmierci	-11.8358
▁pustynie	-11.8359
▁mistyczne	-11.8359
▁mrocznej	-11.836
▁serduszka	-11.8362
▁dymiąc	-11.8363
▁okrągłe	-11.8367
▁czekania	-11.8368
anka	-11.8368
▁jutrzenka	-11.837
▁Jehowa	-11.837
▁Patrzcie	-11.8372
▁Straszne	-11.8372
land	-11.8375
▁lądu	-11.8379
bor	-11.8379
▁lisi	-11.838
▁szafirow	-11.838
▁członk	-11.8381
gan	-11.8382
▁Muz	-11.8382
▁kształtu	-11.8383
▁naokół	-11.8383
letnie	-11.8386
▁zamarzł	-11.8386
▁obrońc	-11.8388
▁leniwy	-11.8388
zniosę	-11.8389
▁Trud	-11.839
▁kompani	-11.8391
▁seri	-11.8391
▁patr	-11.8393
▁płoni	-11.8395
tos	-11.8396
▁chłoną	-11.8396
▁prawdziwych	-11.8397
▁zerka	-11.8398
ire	-11.84
▁serdeczny	-11.8401
▁Wszakże	-11.8402
▁oślepł	-11.8405
▁składać	-11.8408
▁rosi	-11.841
▁bada	-11.841
▁orszaki	-11.8411
▁szyj	-11.8413
▁tłumnie	-11.8414
▁spodem	-11.8416
▁Stanął	-11.8417
▁Laura	-11.8419
▁wielo	-11.8419
▁patrzyli	-11.842
gla	-11.8421
kupić	-11.8424
jącym	-11.8426
▁wylot	-11.8426
▁twórcza	-11.8428
▁widz	-11.8428
▁niemoc	-11.843
▁ginąć	-11.8431
▁szkarłatny	-11.8432
▁łokci	-11.8432
▁sypiąc	-11.8433
ham	-11.8434
▁reklama	-11.8436
▁cienisty	-11.8438
▁Wygląda	-11.8439
▁wyłom	-11.8439
▁czart	-11.8441
▁Biel	-11.8442
▁brzask	-11.8444
▁zdobi	-11.8444
trze	-11.8444
▁przyjacielski	-11.8445
▁silnie	-11.8448
▁powiększa	-11.8448
rał	-11.8451
Miałem	-11.8451
▁słodyczą	-11.8451
▁łasi	-11.8455
▁inicjał	-11.8456
łamał	-11.8461
▁zmuszon	-11.8464
▁Wyszedł	-11.8464
▁strzecha	-11.8465
▁mijamy	-11.8466
mrzeć	-11.8466
▁budzie	-11.8466
▁pokochał	-11.8467
sti	-11.8469
▁sprawiedliw	-11.8471
▁Wieczne	-11.8471
▁sczerniał	-11.8472
▁gną	-11.8472
▁Różn	-11.8473
▁skalny	-11.8473
▁wyglądał	-11.8477
▁grało	-11.8482
▁pocieszy	-11.8482
niku	-11.8483
pisuje	-11.8484
▁bębni	-11.8486
▁bezbrzeżny	-11.8488
▁parów	-11.849
▁drugich	-11.8497
▁jutrznia	-11.8498
▁Żydów	-11.8503
niejszy	-11.8506
▁iloś	-11.8512
▁przystał	-11.8512
▁Zęb	-11.8515
▁rytmiczne	-11.8516
▁Wróci	-11.8517
▁listów	-11.8518
kładać	-11.8522
▁usiadła	-11.8523
leci	-11.8524
▁wypuszcza	-11.8524
▁tygodnia	-11.8527
▁śmiechy	-11.8527
▁dostrzegam	-11.8529
lik	-11.8529
▁cham	-11.8529
▁sky	-11.8535
▁wiatrak	-11.8537
▁zbudzony	-11.8537
▁szczęk	-11.8541
▁drzewami	-11.8541
▁porwan	-11.8543
▁pracując	-11.8545
▁fait	-11.8545
▁Bry	-11.8547
▁czyją	-11.8551
▁śnież	-11.8551
▁wyroki	-11.8552
▁żarliw	-11.8555
▁och	-11.8555
▁przełyk	-11.8556
▁zdziwione	-11.8559
▁zbój	-11.8559
▁żądać	-11.8561
▁grzmiąc	-11.8562
▁blondynk	-11.8562
Kocham	-11.8563
▁harfa	-11.8564
▁altan	-11.8565
patrzy	-11.8565
owskie	-11.8569
Takiej	-11.8569
▁mecz	-11.8569
leść	-11.857
▁roze	-11.8573
▁rzeszą	-11.8575
▁Tra	-11.8578
▁Szli	-11.8584
▁słusznie	-11.8584
▁drze	-11.8585
но	-11.8588
▁ujrz	-11.8588
н	-11.8591
słuchał	-11.8591
▁druku	-11.8592
▁klas	-11.8594
wołać	-11.8596
▁zapyta	-11.8597
ies	-11.8599
siał	-11.8601
▁Hal	-11.8601
▁staję	-11.8604
▁wężow	-11.8604
▁gościa	-11.8604
miot	-11.8604
▁rozwi	-11.8607
▁an	-11.8609
▁wyższy	-11.8611
▁Kle	-11.8612
▁wiatrów	-11.8614
▁prz	-11.8614
▁Bywa	-11.8615
▁łby	-11.8615
bywa	-11.8616
▁rumiane	-11.8621
▁zbiega	-11.8625
▁zim	-11.8626
▁jaskini	-11.8627
▁wind	-11.8627
ład	-11.8629
▁drą	-11.8629
▁przecudne	-11.8629
mieć	-11.8629
prowadzon	-11.863
▁przepadł	-11.863
cki	-11.8632
▁Iść	-11.8633
cego	-11.8633
▁francuskie	-11.8635
▁zostawion	-11.8638
▁ulubiony	-11.8639
▁odczuwa	-11.8642
▁gryzą	-11.8644
▁przeciągłe	-11.8649
▁łagodny	-11.8649
alnie	-11.865
▁płynne	-11.8655
▁miastach	-11.8656
▁jednako	-11.8657
▁przeszedł	-11.8658
▁śliskim	-11.8659
▁świty	-11.8665
▁Szukam	-11.8665
prowadzę	-11.8666
▁królewskie	-11.8671
▁posępny	-11.8673
▁hałas	-11.8676
▁Błogosławi	-11.8682
▁leżała	-11.8684
▁położ	-11.8684
tera	-11.8685
▁trudzi	-11.8686
▁Uśmiecha	-11.8688
▁biedak	-11.869
▁znacie	-11.869
czystości	-11.869
▁Żył	-11.8691
pt	-11.8692
▁Ciepły	-11.8694
ub	-11.8697
▁glinian	-11.8701
▁wykute	-11.8702
▁potęg	-11.8711
▁born	-11.8713
▁dusi	-11.8714
▁Ge	-11.8719
▁dyktuj	-11.8722
▁Traw	-11.8723
▁nadciąga	-11.8724
tuje	-11.8725
▁Sta	-11.8726
▁przelotne	-11.8726
▁zgłodniał	-11.8726
▁hardy	-11.8732
▁zdziwienie	-11.8733
▁tlen	-11.8733
lnych	-11.8734
▁codzienn	-11.8737
▁pozbawion	-11.8738
▁Ży	-11.8743
▁oper	-11.8749
▁salw	-11.8749
▁над	-11.8751
▁różowa	-11.8751
▁tor	-11.8754
usia	-11.8754
▁wierzchołk	-11.8755
▁Poszedł	-11.8761
▁resztka	-11.8766
rzucą	-11.8766
▁stój	-11.8767
▁września	-11.8767
▁Otwierają	-11.8768
iti	-11.8769
nių	-11.8769
▁łuska	-11.8774
▁Grzeczni	-11.8775
gnije	-11.8775
▁przeszłe	-11.8776
▁pryśnie	-11.8777
▁któregoś	-11.8777
ele	-11.8778
▁tro	-11.8779
▁brunatn	-11.8784
▁Dzięki	-11.8784
▁trwając	-11.8785
▁skalne	-11.8786
ium	-11.8786
▁rozpostarty	-11.8787
▁odmian	-11.8788
▁odłamk	-11.8789
▁Wod	-11.8789
▁widn	-11.8796
▁kadr	-11.8796
▁koniecznie	-11.8796
▁Ziemię	-11.8798
▁idealn	-11.8799
▁przerw	-11.8802
▁Dziwn	-11.8804
▁błonie	-11.8805
▁Różow	-11.8805
ster	-11.8808
▁hart	-11.8809
▁taśm	-11.8813
▁lampa	-11.8815
czekując	-11.8816
▁grając	-11.8819
rastają	-11.8821
▁pojęcie	-11.8821
▁wypełnion	-11.8823
▁skała	-11.8824
▁Zapomniał	-11.8824
▁Śmieją	-11.8825
zwać	-11.8832
▁cielska	-11.8832
chwycić	-11.8838
rzemień	-11.884
▁zmieniając	-11.8845
▁podąża	-11.8849
▁ułoży	-11.885
▁niebezpieczn	-11.8854
Tu	-11.8856
▁opona	-11.8856
▁koral	-11.886
▁stroju	-11.8861
▁kuri	-11.8861
deł	-11.8861
czych	-11.8861
Ona	-11.8862
Jestem	-11.8869
▁prosiła	-11.8869
▁zwiastują	-11.8872
▁skut	-11.8873
dek	-11.8875
▁chlubi	-11.8875
▁dziko	-11.8875
▁wyrzut	-11.8876
▁skrzypią	-11.8879
▁siw	-11.8879
▁górskie	-11.8882
▁luki	-11.8884
łamany	-11.8886
▁łaska	-11.8886
▁zową	-11.8886
▁czyści	-11.8894
uma	-11.8895
zorem	-11.89
lecz	-11.8901
▁główka	-11.8904
▁podejrzan	-11.8904
▁hai	-11.8907
▁zasiada	-11.8909
aha	-11.8909
▁groźnym	-11.8912
tkę	-11.8912
szka	-11.8914
▁ostr	-11.8917
alnych	-11.8919
io	-11.8921
▁wyśni	-11.8923
▁noszą	-11.8925
▁sklepienia	-11.8929
▁chiński	-11.893
sią	-11.8935
▁obra	-11.8939
ure	-11.8946
▁spóźnion	-11.8947
▁codzienne	-11.8951
red	-11.8955
▁sklep	-11.8955
▁pomylił	-11.8957
▁Dziw	-11.8958
▁kręgosłupa	-11.8958
▁niebieskiej	-11.896
▁podwodn	-11.896
▁wieczor	-11.896
dszedł	-11.8962
strzelił	-11.8963
uszki	-11.8966
▁wymienia	-11.8966
▁czujne	-11.8967
▁zjawił	-11.8968
▁Buch	-11.8969
▁spal	-11.8974
▁Ciężki	-11.8985
chodzenia	-11.8986
kar	-11.8987
▁ognistym	-11.8988
▁........	-11.8988
▁Zamkną	-11.8988
▁wykorzysta	-11.8992
trzymam	-11.8996
▁zimowe	-11.8997
cal	-11.8998
kowych	-11.8999
▁Żółty	-11.9001
age	-11.9003
▁gron	-11.9005
▁Prosi	-11.9012
▁grud	-11.9015
▁bujne	-11.9018
▁księżyce	-11.9023
▁scena	-11.9024
alny	-11.9024
▁dojrzał	-11.9025
▁pasą	-11.9028
▁szeleszcząc	-11.903
▁odległy	-11.9034
▁role	-11.9037
▁poleca	-11.9038
▁tłusty	-11.9042
▁przeczyta	-11.9053
▁dep	-11.9053
▁benzyn	-11.9056
asza	-11.9058
▁jarzy	-11.9058
L	-11.906
▁rodzin	-11.9061
▁przychodzą	-11.9063
▁karta	-11.9064
▁przetrwa	-11.9065
▁bole	-11.9067
▁rzeźbion	-11.9068
płoch	-11.9069
▁zabawa	-11.9078
▁żu	-11.9083
stać	-11.9087
▁zasłoni	-11.9087
▁lin	-11.9091
▁głupia	-11.9094
int	-11.9098
▁Sierot	-11.9108
▁dysk	-11.9109
rys	-11.9111
cznej	-11.9112
▁set	-11.9112
znę	-11.9115
▁choćbyś	-11.9117
▁bezwstydn	-11.9118
lane	-11.9121
▁mieczy	-11.9125
owani	-11.9125
tuś	-11.9126
iau	-11.9126
▁bru	-11.9128
▁grzeczne	-11.9128
▁rzucon	-11.913
▁postęp	-11.913
▁wysp	-11.9131
darł	-11.9134
▁Duszo	-11.9135
▁zaćmi	-11.9135
▁Płakał	-11.9141
▁przeczuwa	-11.9144
▁alej	-11.9146
▁lokal	-11.9147
▁źrenica	-11.9148
czna	-11.9151
▁odrzucił	-11.9151
▁przedświt	-11.9151
▁napełnion	-11.9154
pot	-11.9155
wite	-11.9157
▁konar	-11.9158
▁ŚmierćW	-11.9158
dnia	-11.916
▁Ptaki	-11.916
Weź	-11.9161
▁fałd	-11.9162
śnij	-11.9164
▁onej	-11.9164
то	-11.9166
kładły	-11.9168
▁syrena	-11.9171
▁pasi	-11.9173
▁przebacz	-11.9173
uj	-11.9175
tylko	-11.9176
urs	-11.9177
▁bicz	-11.9178
▁Złoty	-11.9178
let	-11.9179
▁Mil	-11.918
▁bom	-11.918
▁misa	-11.9182
▁spis	-11.9186
▁zbierze	-11.9186
▁Czemuś	-11.9192
▁pańskim	-11.9192
wej	-11.9193
▁czuła	-11.9205
▁czołg	-11.9206
▁wróż	-11.9208
pią	-11.9209
mistrz	-11.9209
▁pasma	-11.9216
▁wybija	-11.9217
▁grubo	-11.9217
▁wybor	-11.9219
▁opowiadał	-11.9219
▁Pomyśli	-11.9221
przód	-11.9223
▁siedzący	-11.9224
kochałeś	-11.9225
▁comm	-11.9227
▁schowany	-11.9228
prawiają	-11.923
▁zaułka	-11.9231
monet	-11.9233
▁kołach	-11.9234
▁śmig	-11.9235
▁Choćbyś	-11.9236
▁macha	-11.9237
wiódł	-11.9238
▁diament	-11.9239
▁walk	-11.9239
▁Karmi	-11.9242
▁plącze	-11.9242
▁ostateczn	-11.9243
▁soczyst	-11.9247
rry	-11.9252
▁milczał	-11.9253
▁dziewczęc	-11.9255
▁psu	-11.9259
▁Piotr	-11.926
▁zamknie	-11.9268
prowadza	-11.9268
▁płynęła	-11.927
▁Wóz	-11.9272
▁różni	-11.9273
akos	-11.9275
▁kołysząc	-11.9276
▁zaraza	-11.9277
Jesteś	-11.9283
chłonie	-11.9284
▁chodziło	-11.9284
gór	-11.9284
▁igra	-11.9285
wanie	-11.9285
▁waży	-11.9285
pierścieni	-11.929
▁grad	-11.929
▁rozbit	-11.9291
By	-11.9292
▁cierpkie	-11.9294
▁okrąg	-11.9295
Ojcze	-11.9297
rodzone	-11.9297
rasta	-11.9299
▁pazur	-11.93
▁wypi	-11.93
▁nieść	-11.9304
▁Muzy	-11.9305
▁związan	-11.9307
▁gryząc	-11.9308
bach	-11.9308
▁wysyła	-11.9309
bure	-11.9309
świat	-11.931
puszczać	-11.9312
▁pojawia	-11.9313
owskich	-11.9313
Ledwie	-11.9315
Światło	-11.9317
▁uchwyt	-11.932
księżyc	-11.9321
▁nieustanne	-11.9322
owskim	-11.9323
skok	-11.9324
Spójrz	-11.9324
No	-11.9324
bry	-11.9325
▁obojętn	-11.9326
▁prom	-11.9326
▁Srebrne	-11.9329
Kobieta	-11.9329
▁zrobiła	-11.933
Śmiech	-11.9331
▁popatrz	-11.9332
drżały	-11.9333
▁ofiara	-11.9334
▁Własn	-11.9335
Księżyc	-11.9338
▁Zielon	-11.934
kuł	-11.9341
▁rosnąć	-11.9342
▁Obudził	-11.9342
jrzyj	-11.9342
boru	-11.9345
▁Kap	-11.9346
▁porzuca	-11.9346
ruń	-11.9347
▁pękają	-11.9348
▁sek	-11.9348
▁Pada	-11.9349
▁dba	-11.935
trzymał	-11.935
styczne	-11.9351
Myśli	-11.9351
Natura	-11.9353
Patrzę	-11.9355
wam	-11.9356
olę	-11.9356
Śpij	-11.9356
▁opal	-11.9356
wiatr	-11.9358
źle	-11.9359
▁Pis	-11.9359
chodzących	-11.9361
pływał	-11.9361
▁budził	-11.9362
▁trzęsą	-11.9362
arzu	-11.9364
Ziemia	-11.9364
▁portfel	-11.9368
głos	-11.9372
▁popołudni	-11.9372
wkę	-11.9372
stę	-11.9373
uf	-11.9373
Ej	-11.9373
▁duchowy	-11.9376
arze	-11.9376
ery	-11.9377
▁wstąpi	-11.9378
Ptak	-11.9379
Rozpacz	-11.9384
wołał	-11.9386
▁day	-11.9386
▁macza	-11.9387
▁20	-11.9389
puszczę	-11.9392
▁tułaczy	-11.9393
mierzył	-11.9394
▁złud	-11.9394
▁troska	-11.9395
wóz	-11.9396
▁uroni	-11.9398
padło	-11.9399
▁tygrys	-11.9399
▁war	-11.94
mis	-11.9404
▁stawał	-11.9405
▁pozbawi	-11.9406
Duch	-11.9406
▁korona	-11.941
▁złocon	-11.941
▁umierający	-11.9418
▁bledną	-11.942
▁skon	-11.9421
▁huf	-11.9427
▁Pisz	-11.9428
▁porzucone	-11.9429
stali	-11.9433
▁Modli	-11.9434
▁zniszczon	-11.9439
legnie	-11.9444
myślisz	-11.9445
Tłum	-11.9445
gwiezdny	-11.9447
▁salwa	-11.9447
deptać	-11.9448
▁rozkwit	-11.9448
▁uprawia	-11.9453
▁poblask	-11.9457
▁Sprawiedliwość	-11.9459
▁plus	-11.946
jadł	-11.9461
kryje	-11.9461
▁magiczny	-11.9462
▁płomienn	-11.9462
▁obecn	-11.9465
gna	-11.9468
▁szyn	-11.9468
▁napiera	-11.9468
▁zakaz	-11.9469
ian	-11.947
▁palił	-11.9471
▁zrobili	-11.9471
▁pocie	-11.9472
▁Ziemi	-11.9472
▁znany	-11.9474
▁wiel	-11.9475
tas	-11.9477
padnę	-11.9479
▁niezgod	-11.9479
▁bla	-11.948
▁wre	-11.9481
▁mszy	-11.9486
wski	-11.9487
▁chrzest	-11.949
ем	-11.9493
▁łatw	-11.9494
▁Ga	-11.9495
▁zapewni	-11.9497
rdzaw	-11.9498
▁Spada	-11.9498
▁pany	-11.9499
vai	-11.9502
▁Ję	-11.9502
▁pułk	-11.9502
▁wtula	-11.9504
▁prowadzą	-11.9505
▁roboc	-11.9507
▁atak	-11.9507
pol	-11.9508
▁pytają	-11.9509
▁krzepi	-11.9511
▁przymus	-11.9512
▁Żegnaj	-11.9513
czym	-11.9514
▁Pot	-11.9516
▁wieńca	-11.9517
”?	-11.9517
▁wiejski	-11.9517
erze	-11.9522
będziesz	-11.9523
ug	-11.9524
▁ślepo	-11.9525
▁ž	-11.9525
nos	-11.9526
▁zeszli	-11.9528
▁czerpa	-11.9532
▁Przyszli	-11.9532
▁obłędny	-11.9533
▁zaszło	-11.9533
▁Niedo	-11.9533
▁znała	-11.9534
▁topiel	-11.9536
metr	-11.9538
▁styczni	-11.9538
inės	-11.9539
▁powi	-11.954
▁okryty	-11.954
piszę	-11.9545
▁śnieżyc	-11.9545
▁ju	-11.9547
▁wędrują	-11.9548
▁Zły	-11.9548
Jedn	-11.9549
▁tłumacz	-11.9549
▁delikatne	-11.9549
cześnie	-11.9549
▁tau	-11.955
▁Siostr	-11.955
▁ćma	-11.955
▁niepewny	-11.955
▁kopi	-11.9551
Moj	-11.9552
dół	-11.9553
▁głębok	-11.9553
biegnę	-11.9556
kwitły	-11.9557
fruwa	-11.956
bula	-11.9564
każe	-11.9565
▁filmu	-11.9566
▁Kam	-11.9566
▁Groz	-11.9567
▁miłosiern	-11.9567
włosy	-11.9567
cale	-11.9568
▁wędruj	-11.9568
▁Pora	-11.957
ziął	-11.9571
▁owiec	-11.9573
▁świerk	-11.9574
▁Przychodzą	-11.9576
▁tętnią	-11.9578
▁ptaszy	-11.9579
▁Przysięga	-11.958
▁lubieżn	-11.958
zbierając	-11.958
▁zaduma	-11.9585
gier	-11.9587
wiera	-11.9588
▁wodny	-11.9588
liwy	-11.9588
▁Skry	-11.9589
▁skończone	-11.959
▁dain	-11.9591
gasz	-11.9592
▁piołun	-11.9593
kit	-11.9596
▁SenA	-11.96
▁postaw	-11.9601
▁Błądz	-11.9601
▁zamkną	-11.9602
móc	-11.9602
▁glo	-11.9602
▁Żebyś	-11.9603
budzony	-11.9604
▁wyznaj	-11.9607
▁she	-11.9607
zwierzęce	-11.9608
▁koszmar	-11.961
▁Zaśpiewaj	-11.9613
▁cząstk	-11.9614
▁wiążą	-11.9616
▁twórcz	-11.9617
▁rozmyśla	-11.9618
▁błękitna	-11.9623
▁zaczęł	-11.9623
▁Prawd	-11.9625
▁falują	-11.9625
zbędne	-11.9626
▁pieczy	-11.9629
Stał	-11.963
rzuciwszy	-11.9631
nagrodzi	-11.9631
▁wrażliw	-11.9631
▁doktor	-11.9632
stało	-11.9633
niesie	-11.9634
▁ruczaj	-11.9635
ard	-11.9635
▁zmieniał	-11.9635
▁żądza	-11.9637
▁Któr	-11.9637
▁HA	-11.9638
błogosław	-11.9639
oń	-11.9641
▁przysiadł	-11.9641
▁biegun	-11.9641
▁Drżą	-11.9642
▁siekier	-11.9644
▁twierdzi	-11.9644
lka	-11.9645
▁wpływa	-11.9646
▁Trucizn	-11.9646
▁próchnie	-11.9648
▁cierpk	-11.9652
▁wzniesie	-11.9653
▁Laur	-11.9654
▁meteor	-11.9655
▁perłow	-11.9655
▁wynika	-11.9656
▁pierzcha	-11.9657
ewsząd	-11.9657
▁policj	-11.9657
▁kołdr	-11.9658
▁roztopi	-11.9661
▁tkanin	-11.9661
▁ufn	-11.9664
▁kiełbas	-11.9668
▁broka	-11.967
▁zgadu	-11.9671
▁Kup	-11.9671
▁narzuca	-11.9672
▁cudowny	-11.9673
ejdziemy	-11.9675
▁klejnot	-11.9676
▁szans	-11.9676
▁opadają	-11.9678
▁kniej	-11.9679
▁zwalon	-11.968
▁Czyja	-11.968
▁pry	-11.968
▁kłopot	-11.9681
ologii	-11.9682
▁czupryn	-11.9683
▁gromadzi	-11.9684
▁gitar	-11.9684
▁mordę	-11.9684
jąć	-11.9686
▁czarown	-11.9686
▁zabierz	-11.9686
▁możliw	-11.9687
▁złowrogi	-11.9688
▁łyżk	-11.9689
▁reguł	-11.9689
▁Jem	-11.969
▁ustronie	-11.9691
▁biesiad	-11.9692
▁cofa	-11.9692
rysował	-11.9693
▁szarości	-11.9693
▁łoskot	-11.9694
▁nosa	-11.9694
▁wiór	-11.9694
▁studnia	-11.9694
▁rynn	-11.9695
▁wybaw	-11.9695
▁miliard	-11.9696
▁Owoc	-11.9696
▁dwojg	-11.9697
▁żurawi	-11.9697
▁natchnienie	-11.9697
pełzł	-11.9697
▁skrót	-11.9698
▁staro	-11.9698
▁tunel	-11.9698
▁nadchodzą	-11.9698
zwól	-11.9699
▁zabierają	-11.97
▁modł	-11.9702
▁sprowadza	-11.9703
▁hojn	-11.9704
▁grzeszy	-11.9705
//	-11.9705
..........	-11.9706
wiodę	-11.9707
▁rosła	-11.9707
▁licz	-11.9708
▁schizofreni	-11.9708
▁tancerk	-11.9708
rozumiał	-11.9708
▁mgław	-11.9709
▁mężczyźni	-11.9709
▁Młody	-11.971
▁chłopczyk	-11.9712
▁komunikat	-11.9712
▁posłuszny	-11.9713
▁cisną	-11.9714
▁odpowiedz	-11.9714
zbie	-11.9715
▁kłębią	-11.9715
▁adres	-11.9715
▁odmówi	-11.9716
▁testament	-11.9716
▁przykry	-11.9716
▁zdrowy	-11.9716
▁uliczk	-11.9717
ties	-11.9717
▁zachodnie	-11.9718
▁fikcj	-11.9719
▁świadectw	-11.9719
▁Jaskółeczk	-11.9721
▁dwudziest	-11.9721
▁przeleci	-11.9721
▁zgasi	-11.9722
▁światłości	-11.9722
▁radosne	-11.9725
▁zapatrzony	-11.9725
▁zastanowi	-11.9726
▁bezruch	-11.9726
though	-11.9726
▁Tch	-11.9726
▁ud	-11.9728
▁CiałoA	-11.9729
▁wypowie	-11.973
▁geniusze	-11.9731
▁rzucony	-11.9731
▁powietrzne	-11.9731
▁wychodzą	-11.9732
▁bezwiedn	-11.9733
▁długopis	-11.9733
▁neon	-11.9734
▁łamał	-11.9734
▁melody	-11.9736
ruszkę	-11.9736
▁gwarzą	-11.9737
▁bezbrzeżne	-11.9737
▁błysną	-11.9737
▁trzydziest	-11.9738
Zapada	-11.9738
▁jednostajn	-11.9739
trzyj	-11.974
poczynek	-11.9741
isku	-11.9741
▁dziele	-11.9742
▁obiektyw	-11.9743
tė	-11.9743
▁cytat	-11.9743
▁atmosfer	-11.9743
▁zarośla	-11.9744
▁Nienawiść	-11.9744
▁Budzi	-11.9745
ysunek	-11.9746
SKIEGO	-11.9746
▁Szczecin	-11.9746
▁piaszczysty	-11.9746
▁prezydent	-11.9746
Piramidy	-11.9746
kuczymuni	-11.9746
wlókł	-11.9746
▁Akademi	-11.9746
▁Jungfrau	-11.9746
▁Klejnot	-11.9746
▁Królestwo	-11.9746
▁Narodziny	-11.9746
▁Popiół	-11.9746
▁Prezydent	-11.9746
▁Szlachetn	-11.9746
▁asfalcie	-11.9746
▁bulwar	-11.9746
▁błoń	-11.9746
▁demoniczna	-11.9746
▁druciarczyk	-11.9746
▁dzieciństwie	-11.9746
▁dziedzictw	-11.9746
▁ekstazie	-11.9746
▁ekstazy	-11.9746
▁kobiercu	-11.9746
▁komnacie	-11.9746
▁latarń	-11.9746
▁najprościej	-11.9746
▁nieszczęśliwy	-11.9746
▁niezwłocznie	-11.9746
▁obczyźnie	-11.9746
▁obojczyk	-11.9746
▁ojczyznę	-11.9746
▁ostatka	-11.9746
▁powrocie	-11.9746
▁pozostać	-11.9746
▁pożółkłe	-11.9746
▁pradawne	-11.9746
▁przypomnę	-11.9746
▁relikwi	-11.9746
▁rozpiera	-11.9746
▁semafor	-11.9746
▁specjalne	-11.9746
▁tożsamość	-11.9746
▁uwięzł	-11.9746
▁wysiłek	-11.9746
▁wzdyma	-11.9746
▁zachwyceniu	-11.9746
▁zalęknion	-11.9746
▁zawierusze	-11.9746
▁zmarszczek	-11.9746
▁zmęczona	-11.9746
▁zuchwale	-11.9746
▁Łazarz	-11.9746
▁Fałsz	-11.9746
▁Pilnuj	-11.9746
▁Urzędnik	-11.9746
▁Współczucie	-11.9746
▁błazen	-11.9746
▁ciepłą	-11.9746
▁czeremch	-11.9746
▁miłosną	-11.9746
▁pokoleniu	-11.9746
▁rozpusty	-11.9746
▁słyszeli	-11.9746
▁zajęte	-11.9746
▁ślepą	-11.9746
▁świergot	-11.9746
▁Moskw	-11.9746
▁Naktis	-11.9746
▁Zjednoczon	-11.9746
▁krep	-11.9746
▁miąższ	-11.9746
▁miłosna	-11.9746
▁nasturcj	-11.9746
▁paraliż	-11.9746
▁ptacy	-11.9746
▁siatce	-11.9746
▁wkrąg	-11.9746
▁Chodzę	-11.9746
▁Europie	-11.9746
▁Europy	-11.9746
▁nektar	-11.9746
▁przeżuwa	-11.9746
▁zawieję	-11.9746
▁żółci	-11.9746
▁Brahm	-11.9746
▁Młodości	-11.9746
▁chorób	-11.9746
▁cuchnąc	-11.9746
▁łabędź	-11.9746
▁groźb	-11.9746
▁niespodziewanie	-11.9746
▁niezliczon	-11.9746
▁wiosce	-11.9746
▁zdobywc	-11.9746
▁pismem	-11.9746
▁przeklął	-11.9746
▁1991	-11.9746
▁grzędzie	-11.9746
▁pastwę	-11.9746
▁Franio	-11.9746
▁Strumień	-11.9746
▁Sumienie	-11.9746
▁baśń	-11.9746
▁samochodzie	-11.9746
▁stref	-11.9746
▁wyziera	-11.9746
▁zachwyca	-11.9746
▁zwolna	-11.9746
▁nadejdzie	-11.9746
▁odetchnąć	-11.9746
▁sierść	-11.9746
▁szczodr	-11.9746
▁dobrzy	-11.9746
▁dziąsła	-11.9746
▁nawija	-11.9746
▁przegub	-11.9746
▁Polszcze	-11.9746
▁Wszystkim	-11.9746
▁Zmierzch	-11.9746
▁grosik	-11.9746
▁high	-11.9746
▁perłę	-11.9746
▁przejście	-11.9746
▁zajączek	-11.9746
▁Pustynia	-11.9746
▁obrót	-11.9746
▁ojczyzno	-11.9746
▁rozkazy	-11.9746
▁Rydel	-11.9746
▁Błąka	-11.9746
▁głodzie	-11.9746
▁Promień	-11.9746
▁zmrożon	-11.9746
▁pismo	-11.9746
▁mdłe	-11.9746
▁wszędy	-11.9746
▁zsyła	-11.9746
▁obrócon	-11.9746
▁witraż	-11.9746
▁dostępu	-11.9747
▁froncie	-11.9747
▁podwórku	-11.9747
▁nieszczęść	-11.9747
▁zwierciadłem	-11.9747
▁hyc	-11.9747
▁przepełnienia	-11.9747
▁przełaj	-11.9747
▁Handel	-11.9747
▁mapę	-11.9747
▁kłąb	-11.9747
▁Znacząc	-11.9747
▁różaniec	-11.9747
▁vainik	-11.9747
▁siostrą	-11.9747
▁Łeb	-11.9747
▁brząka	-11.9747
▁kazano	-11.9747
▁przyjemność	-11.9747
▁chytrze	-11.9747
▁małżeństw	-11.9747
▁Szmer	-11.9747
▁poduszce	-11.9747
▁human	-11.9747
▁owionie	-11.9747
▁blizko	-11.9747
▁ucisza	-11.9747
▁Spróbuj	-11.9747
▁Interes	-11.9747
▁Ślad	-11.9747
▁hałd	-11.9747
▁zakończenie	-11.9747
▁Tkwi	-11.9747
▁skraca	-11.9747
▁oczywiste	-11.9747
Słonko	-11.9747
▁zakończenia	-11.9747
▁Skrzydła	-11.9747
▁Poeto	-11.9747
▁świecznik	-11.9747
▁nurcie	-11.9747
▁tabliczk	-11.9747
▁Matys	-11.9747
▁zdjąć	-11.9747
▁wonności	-11.9747
▁rogach	-11.9747
▁grymas	-11.9747
▁termometrze	-11.9747
[...]
